#ifndef __ECG_SEG_WEIGHT_H__
#define __ECG_SEG_WEIGHT_H__

static unsigned char unet_encoder0_conv1d_block_0_conv_weight0[48] __attribute__((aligned(4))) = {
  0xf4, 0x03, 0x82, 0xc0, 0x4a, 0x56, 0xf0, 0x40, 0xd4, 0xa6, 0xfa, 0x40,
  0x28, 0x91, 0x0a, 0x41, 0x21, 0x69, 0xe6, 0xbf, 0x57, 0x82, 0x8b, 0xbd,
  0xaf, 0x28, 0x25, 0xc1, 0x06, 0x9a, 0x98, 0x3f, 0x2c, 0xe0, 0x0b, 0xc1
};
static unsigned char unet_encoder0_conv1d_block_0_conv_weight1[48] __attribute__((aligned(4))) = {
  0xd5, 0x3f, 0x1e, 0xc1, 0x4d, 0xe0, 0xa1, 0xbf, 0xdf, 0xcb, 0x54, 0x3f,
  0x8e, 0xf8, 0x1b, 0x40, 0x1e, 0xeb, 0xc6, 0x40, 0x93, 0xfd, 0xcc, 0x3f,
  0x92, 0x87, 0x32, 0xbf, 0xfb, 0xfe, 0x6f, 0xc0, 0x34, 0x96, 0xbe, 0x40
};
static unsigned char unet_encoder0_conv1d_block_0_conv_weight2[48] __attribute__((aligned(4))) = {
  0x5d, 0xd8, 0xd6, 0xc0, 0x75, 0x96, 0xdb, 0xc0, 0x56, 0xdf, 0xc2, 0xbf,
  0xd5, 0xf3, 0x9f, 0xc0, 0x15, 0x72, 0xf5, 0x40, 0xb8, 0x6f, 0xbf, 0x3e,
  0x84, 0x81, 0xc8, 0x40, 0xdc, 0x7b, 0x78, 0x3e, 0x31, 0xcd, 0xa7, 0x40
};
static unsigned char unet_encoder0_conv1d_block_0_conv_weight3[48] __attribute__((aligned(4))) = {
  0x37, 0xdd, 0x5d, 0x40, 0xb2, 0xc6, 0x84, 0x40, 0xf1, 0xfb, 0x45, 0x3f,
  0x4d, 0xa7, 0xa1, 0x40, 0xd7, 0xaa, 0xd1, 0xc0, 0x28, 0xfe, 0x65, 0xbf,
  0x84, 0x10, 0xc0, 0xc0, 0x29, 0x69, 0x4a, 0xc0, 0xc3, 0x86, 0xec, 0x3f
};
static unsigned char unet_encoder0_conv1d_block_0_conv_bias[16] __attribute__((aligned(4))) = {
  0xdd, 0x5e, 0x57, 0x3d, 0x1d, 0x80, 0x38, 0x3d, 0x97, 0x11, 0x77, 0x3d,
  0x4b, 0xeb, 0x6d, 0xbc
};
static unsigned char unet_encoder0_conv1d_block_1_conv_weight0_0[48] __attribute__((aligned(4))) = {
  0x7f, 0xe6, 0x5e, 0xbd, 0x1f, 0xbf, 0x99, 0xbc, 0xbf, 0x35, 0x84, 0xbd,
  0x78, 0x37, 0x1b, 0xbe, 0x90, 0xf8, 0x41, 0xbe, 0x84, 0x4c, 0xb4, 0xbd,
  0xe6, 0x88, 0x79, 0xbe, 0x4a, 0xf3, 0x0c, 0xbe, 0xcc, 0x78, 0xf3, 0xbc
};
static unsigned char unet_encoder0_conv1d_block_1_conv_weight0_1[48] __attribute__((aligned(4))) = {
  0x3f, 0x3d, 0xf4, 0x3c, 0xfe, 0x9e, 0xab, 0x3c, 0x5b, 0xe4, 0x7c, 0xbd,
  0x7c, 0xdc, 0x92, 0xbc, 0xf1, 0x90, 0x94, 0xbd, 0x32, 0xf5, 0xf9, 0x3c,
  0xb9, 0x4f, 0xa6, 0x3d, 0x26, 0x2a, 0x17, 0x3d, 0x68, 0xa8, 0x00, 0x3e
};
static unsigned char unet_encoder0_conv1d_block_1_conv_weight0_2[48] __attribute__((aligned(4))) = {
  0x4a, 0x3a, 0xed, 0x3c, 0x6d, 0x3a, 0xad, 0x3b, 0x4c, 0xdb, 0x16, 0x3e,
  0xc5, 0xf1, 0xac, 0x3c, 0xf1, 0xe4, 0x12, 0x3e, 0x6a, 0xb4, 0x27, 0x3e,
  0x60, 0x73, 0xc4, 0x3d, 0x22, 0xb9, 0x7d, 0x3d, 0x53, 0x4f, 0x06, 0x3d
};
static unsigned char unet_encoder0_conv1d_block_1_conv_weight0_3[48] __attribute__((aligned(4))) = {
  0xc4, 0xed, 0x23, 0x3e, 0x3e, 0xfe, 0x30, 0x3d, 0x5c, 0x30, 0x75, 0x3d,
  0x4e, 0xa0, 0x85, 0xbd, 0x83, 0xb3, 0x1a, 0xbe, 0xb1, 0xfd, 0xd9, 0xbd,
  0xab, 0x1c, 0x4b, 0xbd, 0x0a, 0x8c, 0x07, 0x3c, 0x26, 0x52, 0x83, 0xbd
};
static unsigned char unet_encoder0_conv1d_block_1_conv_weight1_0[48] __attribute__((aligned(4))) = {
  0x7b, 0x2a, 0x3f, 0x3d, 0x8e, 0x1d, 0x1e, 0x3e, 0xc7, 0x29, 0x8b, 0x3d,
  0x1d, 0xad, 0xf8, 0x3d, 0xde, 0xa3, 0x13, 0x3d, 0xdf, 0xc3, 0x9e, 0xbd,
  0x92, 0x36, 0x55, 0xbc, 0x7b, 0xdf, 0xb7, 0x3c, 0x90, 0xd3, 0xee, 0xbd
};
static unsigned char unet_encoder0_conv1d_block_1_conv_weight1_1[48] __attribute__((aligned(4))) = {
  0x44, 0xb4, 0xc6, 0xbd, 0xb8, 0x3e, 0x9e, 0xbc, 0xf6, 0xd3, 0xee, 0x3c,
  0x38, 0xc4, 0x7e, 0xbd, 0x6f, 0x37, 0xee, 0xbd, 0xa0, 0xb1, 0x88, 0xbc,
  0xa3, 0x89, 0x7f, 0x3d, 0x46, 0x7c, 0xcb, 0xbd, 0x18, 0x9c, 0x57, 0x3d
};
static unsigned char unet_encoder0_conv1d_block_1_conv_weight1_2[48] __attribute__((aligned(4))) = {
  0x0c, 0xa9, 0x90, 0xbd, 0x52, 0x04, 0xd1, 0xbd, 0xdf, 0xc9, 0x0a, 0xbe,
  0xdb, 0xbe, 0xcf, 0xbd, 0x3c, 0xf6, 0x84, 0xbe, 0x70, 0xca, 0x97, 0xbe,
  0x35, 0xd5, 0x5b, 0xbe, 0x96, 0xe4, 0xc3, 0xbd, 0x38, 0x42, 0xbe, 0x3d
};
static unsigned char unet_encoder0_conv1d_block_1_conv_weight1_3[48] __attribute__((aligned(4))) = {
  0xb5, 0x58, 0x64, 0x3d, 0x10, 0x1b, 0x35, 0xbd, 0x46, 0x6e, 0x0a, 0x3d,
  0xa2, 0xe5, 0x90, 0xbd, 0xb5, 0xf8, 0xa2, 0x3c, 0xbc, 0x63, 0xcc, 0x3d,
  0x7f, 0xa9, 0x78, 0x3d, 0x45, 0x2e, 0xb8, 0xbc, 0x40, 0xf9, 0x9f, 0x3d
};
static unsigned char unet_encoder0_conv1d_block_1_conv_weight2_0[48] __attribute__((aligned(4))) = {
  0x46, 0x6a, 0x36, 0xbd, 0xd3, 0xd5, 0x31, 0x3c, 0xa5, 0xc4, 0x9a, 0xbe,
  0x2a, 0xdf, 0xef, 0xbd, 0xb2, 0xac, 0x8c, 0x3d, 0x9a, 0x22, 0x36, 0x3d,
  0x4a, 0xc4, 0x0f, 0x3e, 0xd9, 0xcd, 0x25, 0x3e, 0x51, 0x45, 0xaa, 0xbc
};
static unsigned char unet_encoder0_conv1d_block_1_conv_weight2_1[48] __attribute__((aligned(4))) = {
  0xb5, 0x3f, 0x93, 0x3d, 0xa3, 0x1d, 0xde, 0xbb, 0x54, 0x16, 0x3f, 0x3e,
  0x99, 0xe8, 0x51, 0x3e, 0xf2, 0xf9, 0x9b, 0x3d, 0x9f, 0x6c, 0x99, 0x3d,
  0x4b, 0xce, 0x19, 0x3d, 0x6c, 0x0b, 0x13, 0x3e, 0x70, 0x5c, 0xb9, 0xbc
};
static unsigned char unet_encoder0_conv1d_block_1_conv_weight2_2[48] __attribute__((aligned(4))) = {
  0x6a, 0xdc, 0xb3, 0xbc, 0x4f, 0x6e, 0xae, 0xba, 0x69, 0x2c, 0x0f, 0x3e,
  0x3b, 0x19, 0xe6, 0xbd, 0x16, 0xc1, 0x40, 0x3d, 0xc4, 0xbc, 0x60, 0xbe,
  0x54, 0x01, 0x8f, 0x3d, 0x24, 0xef, 0xc1, 0xbc, 0x7d, 0x92, 0x93, 0xbd
};
static unsigned char unet_encoder0_conv1d_block_1_conv_weight2_3[48] __attribute__((aligned(4))) = {
  0xc8, 0x4e, 0xb4, 0x3c, 0xb3, 0xf1, 0xc6, 0x3d, 0x83, 0xb2, 0x44, 0xbd,
  0xa6, 0x6d, 0x07, 0xbe, 0xbd, 0x68, 0x33, 0xbe, 0xb3, 0x6e, 0x03, 0xbe,
  0x22, 0x27, 0xd9, 0xbd, 0x4f, 0x3b, 0xdb, 0x3d, 0xc9, 0xe0, 0x42, 0x3d
};
static unsigned char unet_encoder0_conv1d_block_1_conv_weight3_0[48] __attribute__((aligned(4))) = {
  0xf2, 0x48, 0x49, 0xbe, 0x69, 0xab, 0x67, 0xbc, 0xaf, 0x8b, 0xd5, 0xbd,
  0x80, 0xe9, 0xde, 0x3c, 0x64, 0xfb, 0x5d, 0xbe, 0x43, 0x5d, 0x5a, 0xbe,
  0xa9, 0xe4, 0x9e, 0xbd, 0x3f, 0xe9, 0x19, 0xbe, 0xc2, 0xac, 0x58, 0xbe
};
static unsigned char unet_encoder0_conv1d_block_1_conv_weight3_1[48] __attribute__((aligned(4))) = {
  0x7f, 0xfe, 0x81, 0xba, 0xdc, 0xf6, 0xf5, 0xbd, 0xbd, 0xa7, 0xb2, 0xbc,
  0xde, 0xce, 0x14, 0x3e, 0xc7, 0x85, 0x57, 0xbc, 0xd2, 0x42, 0x89, 0xbc,
  0x46, 0xb4, 0xbe, 0xbc, 0x20, 0xd5, 0xa6, 0xbb, 0x57, 0xde, 0x18, 0xbe
};
static unsigned char unet_encoder0_conv1d_block_1_conv_weight3_2[48] __attribute__((aligned(4))) = {
  0x5c, 0x69, 0xb4, 0x3d, 0x28, 0x10, 0xc9, 0x3d, 0xbd, 0xb5, 0x14, 0x3d,
  0xdd, 0xc9, 0x45, 0xbd, 0x7f, 0x14, 0x02, 0xbe, 0x5a, 0x77, 0x0b, 0xbe,
  0x7b, 0x2c, 0x04, 0xbf, 0xc0, 0x75, 0x72, 0xbe, 0x83, 0xcc, 0x8d, 0xbd
};
static unsigned char unet_encoder0_conv1d_block_1_conv_weight3_3[48] __attribute__((aligned(4))) = {
  0x6a, 0x38, 0x8f, 0x3d, 0x7c, 0x93, 0x24, 0x3e, 0x5e, 0xb2, 0x06, 0xbc,
  0xc7, 0xdb, 0xbf, 0x3d, 0x40, 0x65, 0x89, 0xbd, 0xac, 0x85, 0xbe, 0xbc,
  0x3f, 0x10, 0xac, 0xbd, 0x08, 0x54, 0xdc, 0xbc, 0xb9, 0xcc, 0x57, 0x3d
};
static unsigned char unet_encoder0_conv1d_block_1_conv_bias[16] __attribute__((aligned(4))) = {
  0xf5, 0x90, 0xa7, 0x3e, 0xf8, 0x5f, 0x34, 0x3f, 0xe4, 0x3e, 0x8d, 0x3e,
  0xfd, 0x2a, 0x42, 0x3f
};
static unsigned char unet_encoder1_conv1d_block_0_conv1d_weight[1536] __attribute__((aligned(4))) = {
  0x10, 0xb1, 0x94, 0xbd, 0xcc, 0xcf, 0x01, 0xbc, 0x28, 0x69, 0xe9, 0xbd, 0xc4, 0x5e, 0x1f, 0x3e, 0x53, 0x51, 0xed, 0xbc, 0x89, 0x40, 0x09, 0xbe, 0xf7, 0x3d, 0x8b, 0xbe, 0xef, 0xe3, 0x39, 0xbe,
  0xeb, 0xa4, 0x52, 0xbd, 0x00, 0x00, 0x00, 0x00, 0x00, 0x00, 0x00, 0x00, 0x00, 0x00, 0x00, 0x00, 0x76, 0x3f, 0x90, 0xbe, 0xe4, 0x8c, 0x89, 0xbe, 0xdd, 0xb0, 0x77, 0xbd, 0xa4, 0x41, 0xd9, 0x3d,
  0xde, 0x9d, 0x5c, 0x3e, 0x22, 0x9e, 0x9e, 0x3e, 0x3b, 0x23, 0x36, 0x3e, 0x2f, 0xf9, 0x51, 0x3e, 0xce, 0x95, 0xf4, 0x3e, 0x00, 0x00, 0x00, 0x00, 0x00, 0x00, 0x00, 0x00, 0x00, 0x00, 0x00, 0x00,
  0xbe, 0xe8, 0x66, 0x3e, 0x48, 0xc4, 0x5b, 0xbd, 0xe4, 0x45, 0x4b, 0x3e, 0xca, 0xd5, 0xd5, 0xbd, 0x96, 0x22, 0xb3, 0x3d, 0x8f, 0xfb, 0xd9, 0x3d, 0x4a, 0xf0, 0x32, 0xbe, 0xbc, 0xff, 0x16, 0xbb,
  0xf0, 0x96, 0x90, 0xbe, 0x00, 0x00, 0x00, 0x00, 0x00, 0x00, 0x00, 0x00, 0x00, 0x00, 0x00, 0x00, 0x9d, 0x6b, 0x4d, 0xbe, 0xfa, 0xc8, 0x40, 0xbe, 0x78, 0x17, 0x72, 0xbe, 0xb0, 0x31, 0xb3, 0xbd,
  0x5c, 0x7e, 0x66, 0xbe, 0x7e, 0x47, 0x6f, 0xbd, 0xa8, 0x4e, 0x80, 0xbd, 0xc4, 0x13, 0x9e, 0x3d, 0xc9, 0x18, 0x42, 0x3c, 0x00, 0x00, 0x00, 0x00, 0x00, 0x00, 0x00, 0x00, 0x00, 0x00, 0x00, 0x00,
  0xb1, 0x35, 0x7c, 0xbe, 0xa8, 0xc2, 0xc4, 0xbe, 0x87, 0x27, 0x8d, 0xbe, 0x97, 0xb1, 0x03, 0xbf, 0x84, 0x61, 0xb9, 0x3d, 0x23, 0x62, 0x90, 0x3e, 0x32, 0x5c, 0xc7, 0x3d, 0xbf, 0xa9, 0x51, 0x3e,
  0x9a, 0x71, 0x18, 0x3d, 0x00, 0x00, 0x00, 0x00, 0x00, 0x00, 0x00, 0x00, 0x00, 0x00, 0x00, 0x00, 0x72, 0x31, 0xe8, 0x3d, 0x5f, 0xa3, 0xaf, 0xbe, 0x6f, 0x2d, 0xfe, 0xbd, 0x06, 0x38, 0xea, 0xbe,
  0xad, 0xe4, 0x9a, 0xbe, 0x6d, 0x71, 0x5e, 0x3e, 0x12, 0xed, 0x48, 0x3e, 0x7c, 0x51, 0xa4, 0x3e, 0xcc, 0xcb, 0xa0, 0x3d, 0x00, 0x00, 0x00, 0x00, 0x00, 0x00, 0x00, 0x00, 0x00, 0x00, 0x00, 0x00,
  0x83, 0x4e, 0x65, 0x3e, 0xa8, 0xcd, 0x07, 0xbe, 0x96, 0x00, 0xa8, 0xbe, 0x72, 0xe3, 0x9e, 0xbd, 0xd3, 0x66, 0x2c, 0xbe, 0xa9, 0x8d, 0x8d, 0x3e, 0xf5, 0x92, 0xa4, 0x3d, 0x43, 0xae, 0x7e, 0x3d,
  0x52, 0xe9, 0xcc, 0xbb, 0x00, 0x00, 0x00, 0x00, 0x00, 0x00, 0x00, 0x00, 0x00, 0x00, 0x00, 0x00, 0xa6, 0xaa, 0xb9, 0xba, 0xde, 0x33, 0x13, 0x3e, 0x96, 0x09, 0x2f, 0x3e, 0x87, 0x2d, 0xb1, 0x3e,
  0xda, 0x76, 0xd5, 0x3d, 0x98, 0xec, 0x18, 0x3e, 0x37, 0xe0, 0xb7, 0xbd, 0x2c, 0x77, 0xaf, 0x3c, 0x68, 0x24, 0xb9, 0xbd, 0x00, 0x00, 0x00, 0x00, 0x00, 0x00, 0x00, 0x00, 0x00, 0x00, 0x00, 0x00,
  0x3e, 0xa4, 0x24, 0x3f, 0x52, 0xfb, 0x50, 0xbd, 0x0d, 0xe5, 0xbe, 0x3e, 0x85, 0x65, 0x86, 0xbf, 0xec, 0x91, 0x55, 0xbf, 0x3f, 0x3e, 0xe6, 0xbe, 0x9d, 0x60, 0x13, 0x3f, 0xf7, 0x0c, 0x03, 0x3f,
  0x4f, 0x42, 0xa9, 0xbe, 0x00, 0x00, 0x00, 0x00, 0x00, 0x00, 0x00, 0x00, 0x00, 0x00, 0x00, 0x00, 0xa1, 0x64, 0x75, 0x3e, 0xf7, 0x63, 0x36, 0xbe, 0x9c, 0x73, 0xf2, 0x3d, 0x72, 0x9b, 0x0b, 0xbf,
  0x5c, 0xaf, 0x19, 0x3e, 0x8c, 0x2a, 0xe8, 0x3e, 0x64, 0x68, 0x2f, 0x3d, 0xe1, 0x36, 0x05, 0x3f, 0xd5, 0x03, 0x9f, 0xbe, 0x00, 0x00, 0x00, 0x00, 0x00, 0x00, 0x00, 0x00, 0x00, 0x00, 0x00, 0x00,
  0x78, 0x58, 0x2a, 0xbf, 0x87, 0xf1, 0x52, 0x3d, 0x73, 0x6c, 0x27, 0x3e, 0xba, 0x88, 0x7f, 0xbd, 0xea, 0x09, 0xcf, 0xbd, 0x74, 0xcc, 0xe4, 0xbe, 0x54, 0x88, 0xc9, 0xbd, 0x55, 0x98, 0x58, 0xbd,
  0xe9, 0xb8, 0xc8, 0x3e, 0x00, 0x00, 0x00, 0x00, 0x00, 0x00, 0x00, 0x00, 0x00, 0x00, 0x00, 0x00, 0xae, 0xbd, 0x04, 0x3f, 0x6d, 0xe3, 0x9d, 0xbe, 0xf0, 0xd9, 0x75, 0x3e, 0x43, 0x2d, 0x34, 0xbe,
  0x57, 0x2e, 0x24, 0xbf, 0x85, 0xa1, 0x46, 0x3e, 0x7e, 0xc9, 0xbd, 0x3e, 0x7f, 0x86, 0xdb, 0x3e, 0xf9, 0x99, 0x26, 0xbf, 0x00, 0x00, 0x00, 0x00, 0x00, 0x00, 0x00, 0x00, 0x00, 0x00, 0x00, 0x00,
  0x4d, 0x1d, 0xe0, 0x3d, 0xd5, 0x02, 0xfb, 0x3d, 0x93, 0x6f, 0x84, 0x3e, 0x36, 0x9b, 0x66, 0x3e, 0x62, 0x55, 0x84, 0x3e, 0xf8, 0x48, 0x2d, 0xbe, 0x91, 0x06, 0xd9, 0x3d, 0x37, 0x9a, 0x9b, 0xbc,
  0x40, 0x62, 0xfb, 0x3d, 0x00, 0x00, 0x00, 0x00, 0x00, 0x00, 0x00, 0x00, 0x00, 0x00, 0x00, 0x00, 0x5c, 0x65, 0x4f, 0x3d, 0x63, 0x5e, 0xc5, 0xbd, 0xcd, 0xe3, 0xe4, 0xbe, 0xf7, 0x85, 0x04, 0xbf,
  0xeb, 0x69, 0xd5, 0x3d, 0x2d, 0x80, 0x1e, 0xbd, 0x60, 0x18, 0x0f, 0x3e, 0xe0, 0x35, 0x84, 0x3d, 0x9a, 0xbf, 0x96, 0xbe, 0x00, 0x00, 0x00, 0x00, 0x00, 0x00, 0x00, 0x00, 0x00, 0x00, 0x00, 0x00,
  0xfb, 0x92, 0xa1, 0xbe, 0x16, 0x55, 0x32, 0xbc, 0xcc, 0x7f, 0xad, 0xbd, 0x31, 0x0e, 0x98, 0x3e, 0x57, 0x02, 0xc4, 0x3c, 0x4d, 0xa3, 0x80, 0xbd, 0x9b, 0xf1, 0x59, 0xbe, 0x66, 0xdd, 0x75, 0xbd,
  0xfa, 0x62, 0x36, 0x3e, 0x00, 0x00, 0x00, 0x00, 0x00, 0x00, 0x00, 0x00, 0x00, 0x00, 0x00, 0x00, 0x46, 0x1a, 0xef, 0xbe, 0xf2, 0x9d, 0xe2, 0xbe, 0x98, 0x00, 0x16, 0xbe, 0xc1, 0xd1, 0x86, 0xbe,
  0xdf, 0x5f, 0x4f, 0x3e, 0x67, 0x11, 0x1e, 0x3e, 0x00, 0xe8, 0x87, 0x3e, 0xe4, 0xc3, 0x48, 0xbd, 0xdf, 0x0c, 0x83, 0xbd, 0x00, 0x00, 0x00, 0x00, 0x00, 0x00, 0x00, 0x00, 0x00, 0x00, 0x00, 0x00,
  0xee, 0x57, 0x04, 0xbe, 0x4c, 0x75, 0x93, 0xbe, 0xfe, 0xdd, 0xc6, 0xbe, 0x40, 0x16, 0x42, 0xbe, 0xb4, 0x19, 0xb0, 0xbd, 0x64, 0x97, 0x13, 0xbd, 0xc6, 0xb0, 0x89, 0x3c, 0xab, 0xb1, 0x1d, 0xbe,
  0x28, 0xf8, 0xb3, 0x3d, 0x00, 0x00, 0x00, 0x00, 0x00, 0x00, 0x00, 0x00, 0x00, 0x00, 0x00, 0x00, 0x3b, 0x94, 0x2d, 0xbb, 0xf1, 0xca, 0x8e, 0x3d, 0xc3, 0x2b, 0xea, 0x3d, 0x68, 0x24, 0xe0, 0x3d,
  0xfd, 0x9a, 0xcf, 0x3d, 0xb3, 0x3c, 0xa5, 0x3d, 0x27, 0x7b, 0x91, 0x3d, 0x57, 0x8e, 0x93, 0x3a, 0x5d, 0x46, 0x9d, 0x3d, 0x00, 0x00, 0x00, 0x00, 0x00, 0x00, 0x00, 0x00, 0x00, 0x00, 0x00, 0x00,
  0x6f, 0xc5, 0x24, 0x3c, 0x0e, 0x7d, 0xc7, 0x3d, 0xdd, 0x2d, 0x6b, 0xbd, 0x01, 0xf1, 0x86, 0x3d, 0xfc, 0x52, 0x85, 0xbd, 0xce, 0xf6, 0x9b, 0xbd, 0x50, 0xb7, 0x0c, 0xbe, 0x11, 0x33, 0x93, 0xbd,
  0xc3, 0xda, 0xcd, 0xbd, 0x00, 0x00, 0x00, 0x00, 0x00, 0x00, 0x00, 0x00, 0x00, 0x00, 0x00, 0x00, 0xbd, 0x0c, 0xcd, 0xbd, 0xe2, 0xf7, 0x0e, 0xbe, 0x85, 0xef, 0xa6, 0xbd, 0xfc, 0x04, 0x3a, 0xbd,
  0x24, 0xc2, 0x5f, 0xbe, 0x3f, 0x7c, 0xc0, 0x3c, 0xdd, 0xae, 0x3d, 0xbd, 0xc5, 0x70, 0x6b, 0xbd, 0x30, 0xaf, 0x19, 0x3d, 0x00, 0x00, 0x00, 0x00, 0x00, 0x00, 0x00, 0x00, 0x00, 0x00, 0x00, 0x00,
  0x0f, 0x8c, 0xec, 0x3d, 0x04, 0xe4, 0x45, 0xbe, 0x09, 0x87, 0x13, 0xbc, 0x8e, 0x05, 0x10, 0x3e, 0x5d, 0x2f, 0xc3, 0xbe, 0x0d, 0x74, 0x21, 0xbe, 0x03, 0x30, 0x81, 0xbe, 0xee, 0x60, 0x78, 0x3e,
  0xac, 0x4f, 0x07, 0x3d, 0x00, 0x00, 0x00, 0x00, 0x00, 0x00, 0x00, 0x00, 0x00, 0x00, 0x00, 0x00, 0xf1, 0xca, 0xb0, 0x3d, 0x50, 0x55, 0xab, 0x3e, 0xe0, 0xf0, 0xc6, 0xbd, 0xb0, 0x6e, 0x97, 0x3d,
  0xcb, 0x03, 0xaf, 0x3d, 0x50, 0xdd, 0xdd, 0x3d, 0xf8, 0xa4, 0x90, 0x3e, 0xf5, 0x03, 0x88, 0x3e, 0x0f, 0x19, 0x69, 0x3e, 0x00, 0x00, 0x00, 0x00, 0x00, 0x00, 0x00, 0x00, 0x00, 0x00, 0x00, 0x00,
  0xa5, 0xab, 0x0c, 0xbf, 0x9a, 0x37, 0xf3, 0x3d, 0x58, 0xf2, 0xc6, 0x3e, 0x3c, 0xe7, 0x1d, 0x3d, 0xc9, 0xf5, 0x95, 0x3e, 0x70, 0x20, 0x9a, 0x3e, 0x59, 0x28, 0xe7, 0xbd, 0x8b, 0xa3, 0x20, 0x3e,
  0xe9, 0xdb, 0x98, 0xbd, 0x00, 0x00, 0x00, 0x00, 0x00, 0x00, 0x00, 0x00, 0x00, 0x00, 0x00, 0x00, 0xba, 0x67, 0x60, 0x3e, 0x07, 0xe9, 0x80, 0x3e, 0x84, 0xc8, 0x01, 0xbe, 0x90, 0x0c, 0x33, 0xbe,
  0x29, 0x4d, 0x88, 0xbe, 0x94, 0x72, 0x85, 0xbd, 0x36, 0xa8, 0xb9, 0x3e, 0x25, 0xa0, 0x26, 0x3e, 0x91, 0xa3, 0x1e, 0xbe, 0x00, 0x00, 0x00, 0x00, 0x00, 0x00, 0x00, 0x00, 0x00, 0x00, 0x00, 0x00,
  0x40, 0xc8, 0x89, 0xbe, 0x3e, 0x03, 0xc6, 0x3e, 0x2d, 0xc4, 0x58, 0x3e, 0x4b, 0x0c, 0xb6, 0x3d, 0xbb, 0xc3, 0xcf, 0x3d, 0x62, 0x75, 0x17, 0xbf, 0xdc, 0x48, 0x14, 0xbf, 0xea, 0x0d, 0xb8, 0xbe,
  0x0e, 0x17, 0xba, 0xbd, 0x00, 0x00, 0x00, 0x00, 0x00, 0x00, 0x00, 0x00, 0x00, 0x00, 0x00, 0x00, 0xb3, 0xa8, 0x71, 0xbc, 0xab, 0x14, 0x36, 0x3e, 0x66, 0xef, 0x49, 0xbd, 0xe2, 0x9a, 0xfb, 0x3d,
  0x5b, 0x32, 0x99, 0xbe, 0xe0, 0x5d, 0x8b, 0x3e, 0x9e, 0x3c, 0x2e, 0x3d, 0x4e, 0x5e, 0xc5, 0xbe, 0xbb, 0x05, 0xe8, 0xbe, 0x00, 0x00, 0x00, 0x00, 0x00, 0x00, 0x00, 0x00, 0x00, 0x00, 0x00, 0x00,
  0x1c, 0x0d, 0xb2, 0x3e, 0x4a, 0x09, 0xc2, 0xbe, 0x22, 0xdb, 0x97, 0xbe, 0x31, 0xf0, 0xbe, 0x3d, 0xec, 0x2f, 0x9f, 0x3e, 0x12, 0xdb, 0xcd, 0xbb, 0x4d, 0x1b, 0xbc, 0x3d, 0x65, 0x88, 0x83, 0xbe,
  0x5b, 0x97, 0xad, 0xbe, 0x00, 0x00, 0x00, 0x00, 0x00, 0x00, 0x00, 0x00, 0x00, 0x00, 0x00, 0x00, 0x22, 0xe8, 0x64, 0xbf, 0x7e, 0x77, 0x82, 0xbe, 0x2b, 0x58, 0xc8, 0x3e, 0x45, 0x4f, 0xa8, 0x3e,
  0xe2, 0xa8, 0x7e, 0x3d, 0x8f, 0xe7, 0x70, 0xbe, 0x7c, 0x6d, 0xa3, 0xbe, 0x2b, 0xc2, 0x10, 0x3d, 0x5d, 0x0d, 0x87, 0x3e, 0x00, 0x00, 0x00, 0x00, 0x00, 0x00, 0x00, 0x00, 0x00, 0x00, 0x00, 0x00,
  0x3c, 0x85, 0x57, 0xbe, 0xab, 0xa8, 0xa6, 0x3d, 0x4f, 0x97, 0x9e, 0xbd, 0xbe, 0x7f, 0x0d, 0x3d, 0x6c, 0x99, 0xd7, 0xbd, 0xe0, 0xf3, 0xfe, 0x3c, 0xaa, 0xc8, 0x21, 0xbe, 0x0c, 0xa8, 0x73, 0x3e,
  0x6d, 0x08, 0x96, 0x3c, 0x00, 0x00, 0x00, 0x00, 0x00, 0x00, 0x00, 0x00, 0x00, 0x00, 0x00, 0x00, 0x08, 0x3f, 0x59, 0xbe, 0xa7, 0x8e, 0x82, 0xbe, 0x9a, 0x7d, 0x81, 0xbe, 0x28, 0x73, 0xfd, 0x3d,
  0x86, 0xf3, 0x41, 0x3e, 0x5a, 0x47, 0x28, 0x3e, 0x3f, 0x03, 0x74, 0xbe, 0x10, 0xb0, 0x9f, 0xbe, 0xdb, 0xa5, 0x73, 0xbf, 0x00, 0x00, 0x00, 0x00, 0x00, 0x00, 0x00, 0x00, 0x00, 0x00, 0x00, 0x00,
  0x6d, 0x92, 0x71, 0xbe, 0xdc, 0x55, 0x2d, 0xbe, 0xf3, 0xed, 0x6e, 0x3d, 0x46, 0xb4, 0xa5, 0x3d, 0xbc, 0x40, 0x56, 0xbe, 0xdd, 0x83, 0xa1, 0xbe, 0xd8, 0xa7, 0x30, 0xbe, 0xde, 0xe2, 0x83, 0xbe,
  0xc9, 0x67, 0xbd, 0x3e, 0x00, 0x00, 0x00, 0x00, 0x00, 0x00, 0x00, 0x00, 0x00, 0x00, 0x00, 0x00, 0x54, 0xcb, 0x97, 0x3d, 0xcd, 0x7c, 0x1c, 0xbe, 0xd9, 0xf4, 0xcb, 0xbd, 0x4f, 0x32, 0x5b, 0x3e,
  0x46, 0x1e, 0x93, 0xbd, 0x6b, 0xb9, 0x2d, 0xbe, 0x6f, 0xe4, 0x6c, 0xbe, 0x2e, 0xed, 0xcc, 0xbd, 0xa8, 0x86, 0x8c, 0xbe, 0x00, 0x00, 0x00, 0x00, 0x00, 0x00, 0x00, 0x00, 0x00, 0x00, 0x00, 0x00
};
static unsigned char unet_encoder1_conv1d_block_0_conv1d_bias[32] __attribute__((aligned(4))) = {
  0xe8, 0xd7, 0x05, 0x3f, 0xa0, 0x20, 0x62, 0x3e, 0x5c, 0xe6, 0xac, 0x3e, 0x3b, 0x6c, 0x61, 0x3f, 0x83, 0x11, 0x7c, 0x3f, 0x74, 0x17, 0xaf, 0xbf, 0x00, 0x02, 0xf3, 0x3f, 0x69, 0xe7, 0x1c, 0x40
};
static unsigned char unet_encoder1_conv1d_block_1_conv1d_weight[6144] __attribute__((aligned(4))) = {
  0x00, 0x00, 0x00, 0xa0, 0x03, 0x97, 0xbb, 0x3f, 0x00, 0x00, 0x00, 0xa0,
  0x36, 0x64, 0xc1, 0x3f, 0x00, 0x00, 0x00, 0x00, 0x8d, 0xec, 0xc4, 0x3f,
  0x00, 0x00, 0x00, 0x20, 0x61, 0x7c, 0xba, 0x3f, 0x00, 0x00, 0x00, 0x20,
  0x13, 0x0a, 0xac, 0x3f, 0x00, 0x00, 0x00, 0x20, 0xa9, 0xd9, 0xa5, 0xbf,
  0x00, 0x00, 0x00, 0xc0, 0x13, 0x54, 0x9c, 0x3f, 0x00, 0x00, 0x00, 0x80,
  0xfc, 0x6a, 0x9b, 0xbf, 0x00, 0x00, 0x00, 0x40, 0x5d, 0x40, 0xa2, 0xbf,
  0x00, 0x00, 0x00, 0x00, 0x00, 0x00, 0x00, 0x00, 0x00, 0x00, 0x00, 0x00,
  0x00, 0x00, 0x00, 0x00, 0x00, 0x00, 0x00, 0x00, 0x00, 0x00, 0x00, 0x00,
  0x00, 0x00, 0x00, 0x80, 0xb2, 0x80, 0xba, 0xbf, 0x00, 0x00, 0x00, 0x20,
  0x27, 0x13, 0xc6, 0xbf, 0x00, 0x00, 0x00, 0x40, 0x64, 0x82, 0xc2, 0xbf,
  0x00, 0x00, 0x00, 0x20, 0x9e, 0xc6, 0x89, 0x3f, 0x00, 0x00, 0x00, 0xc0,
  0xf2, 0x7c, 0xc1, 0xbf, 0x00, 0x00, 0x00, 0x00, 0x21, 0xbf, 0x99, 0x3f,
  0x00, 0x00, 0x00, 0xe0, 0xad, 0xca, 0x96, 0x3f, 0x00, 0x00, 0x00, 0x80,
  0x0f, 0xd6, 0xba, 0x3f, 0x00, 0x00, 0x00, 0xe0, 0x3f, 0xb0, 0xcc, 0x3f,
  0x00, 0x00, 0x00, 0x00, 0x00, 0x00, 0x00, 0x00, 0x00, 0x00, 0x00, 0x00,
  0x00, 0x00, 0x00, 0x00, 0x00, 0x00, 0x00, 0x00, 0x00, 0x00, 0x00, 0x00,
  0x00, 0x00, 0x00, 0xa0, 0xd6, 0xf3, 0xc3, 0xbf, 0x00, 0x00, 0x00, 0x40,
  0x11, 0xfa, 0xb1, 0xbf, 0x00, 0x00, 0x00, 0xe0, 0x27, 0xc9, 0xae, 0xbf,
  0x00, 0x00, 0x00, 0x40, 0x78, 0x89, 0x9c, 0x3f, 0x00, 0x00, 0x00, 0x00,
  0x28, 0xc8, 0xba, 0xbf, 0x00, 0x00, 0x00, 0x60, 0x5d, 0x32, 0xb1, 0xbf,
  0x00, 0x00, 0x00, 0x20, 0x33, 0xaf, 0xa5, 0xbf, 0x00, 0x00, 0x00, 0x20,
  0xaa, 0x5f, 0xb5, 0xbf, 0x00, 0x00, 0x00, 0x60, 0x97, 0xae, 0xa9, 0xbf,
  0x00, 0x00, 0x00, 0x00, 0x00, 0x00, 0x00, 0x00, 0x00, 0x00, 0x00, 0x00,
  0x00, 0x00, 0x00, 0x00, 0x00, 0x00, 0x00, 0x00, 0x00, 0x00, 0x00, 0x00,
  0x00, 0x00, 0x00, 0x60, 0x28, 0x17, 0xbc, 0xbf, 0x00, 0x00, 0x00, 0xe0,
  0xda, 0x5a, 0xa4, 0x3f, 0x00, 0x00, 0x00, 0x20, 0xf0, 0x39, 0x87, 0xbf,
  0x00, 0x00, 0x00, 0x00, 0x9f, 0x66, 0xa1, 0x3f, 0x00, 0x00, 0x00, 0x80,
  0x1e, 0x36, 0xa7, 0xbf, 0x00, 0x00, 0x00, 0xc0, 0xac, 0x7c, 0xb9, 0xbf,
  0x00, 0x00, 0x00, 0x40, 0xbf, 0x43, 0xb6, 0x3f, 0x00, 0x00, 0x00, 0x60,
  0x44, 0xf8, 0xb9, 0x3f, 0x00, 0x00, 0x00, 0xa0, 0xa6, 0x0f, 0xa4, 0xbf,
  0x00, 0x00, 0x00, 0x00, 0x00, 0x00, 0x00, 0x00, 0x00, 0x00, 0x00, 0x00,
  0x00, 0x00, 0x00, 0x00, 0x00, 0x00, 0x00, 0x00, 0x00, 0x00, 0x00, 0x00,
  0x00, 0x00, 0x00, 0xe0, 0xc4, 0x36, 0xaa, 0xbf, 0x00, 0x00, 0x00, 0x60,
  0x6a, 0x13, 0x93, 0x3f, 0x00, 0x00, 0x00, 0x60, 0xe2, 0xf9, 0xa0, 0xbf,
  0x00, 0x00, 0x00, 0x60, 0xb0, 0xd6, 0xb3, 0x3f, 0x00, 0x00, 0x00, 0x20,
  0xd6, 0x16, 0xb4, 0x3f, 0x00, 0x00, 0x00, 0xc0, 0x30, 0x69, 0xaa, 0x3f,
  0x00, 0x00, 0x00, 0xe0, 0x97, 0x4f, 0xca, 0x3f, 0x00, 0x00, 0x00, 0xc0,
  0xb3, 0x86, 0xcc, 0x3f, 0x00, 0x00, 0x00, 0xc0, 0xed, 0xc2, 0xbd, 0x3f,
  0x00, 0x00, 0x00, 0x00, 0x00, 0x00, 0x00, 0x00, 0x00, 0x00, 0x00, 0x00,
  0x00, 0x00, 0x00, 0x00, 0x00, 0x00, 0x00, 0x00, 0x00, 0x00, 0x00, 0x00,
  0x00, 0x00, 0x00, 0x20, 0x3c, 0x94, 0xb0, 0xbf, 0x00, 0x00, 0x00, 0x80,
  0x1a, 0x3a, 0xa4, 0xbf, 0x00, 0x00, 0x00, 0x00, 0x83, 0x46, 0xa6, 0x3f,
  0x00, 0x00, 0x00, 0x60, 0xc3, 0x12, 0xb0, 0xbf, 0x00, 0x00, 0x00, 0x00,
  0x73, 0x5c, 0xcc, 0xbf, 0x00, 0x00, 0x00, 0x60, 0x2d, 0x6e, 0xca, 0xbf,
  0x00, 0x00, 0x00, 0x20, 0xa5, 0x10, 0xcc, 0xbf, 0x00, 0x00, 0x00, 0x40,
  0x89, 0x8c, 0xba, 0xbf, 0x00, 0x00, 0x00, 0x80, 0x0a, 0x4b, 0xc6, 0xbf,
  0x00, 0x00, 0x00, 0x00, 0x00, 0x00, 0x00, 0x00, 0x00, 0x00, 0x00, 0x00,
  0x00, 0x00, 0x00, 0x00, 0x00, 0x00, 0x00, 0x00, 0x00, 0x00, 0x00, 0x00,
  0x00, 0x00, 0x00, 0x40, 0x1e, 0xa2, 0xb8, 0x3f, 0x00, 0x00, 0x00, 0x60,
  0xb1, 0x08, 0xc1, 0x3f, 0x00, 0x00, 0x00, 0x80, 0x91, 0xb3, 0xc8, 0x3f,
  0x00, 0x00, 0x00, 0x60, 0x76, 0x30, 0xab, 0x3f, 0x00, 0x00, 0x00, 0xc0,
  0xe4, 0xf0, 0xa6, 0x3f, 0x00, 0x00, 0x00, 0xc0, 0xd1, 0xd4, 0xb3, 0xbf,
  0x00, 0x00, 0x00, 0x00, 0xf7, 0x1f, 0xba, 0x3f, 0x00, 0x00, 0x00, 0x00,
  0x81, 0x07, 0xd3, 0x3f, 0x00, 0x00, 0x00, 0x40, 0x26, 0xa7, 0xde, 0x3f,
  0x00, 0x00, 0x00, 0x00, 0x00, 0x00, 0x00, 0x00, 0x00, 0x00, 0x00, 0x00,
  0x00, 0x00, 0x00, 0x00, 0x00, 0x00, 0x00, 0x00, 0x00, 0x00, 0x00, 0x00,
  0x00, 0x00, 0x00, 0xc0, 0x30, 0x22, 0xbd, 0xbf, 0x00, 0x00, 0x00, 0xc0,
  0x0b, 0x4e, 0xc2, 0xbf, 0x00, 0x00, 0x00, 0x40, 0xba, 0x5e, 0xbb, 0xbf,
  0x00, 0x00, 0x00, 0x00, 0x78, 0xfe, 0xc6, 0xbf, 0x00, 0x00, 0x00, 0x20,
  0xcd, 0xfc, 0xc6, 0xbf, 0x00, 0x00, 0x00, 0xc0, 0x8f, 0x93, 0xbc, 0x3f,
  0x00, 0x00, 0x00, 0x40, 0x0c, 0x62, 0xa0, 0x3f, 0x00, 0x00, 0x00, 0xc0,
  0x26, 0x06, 0xba, 0xbf, 0x00, 0x00, 0x00, 0xc0, 0xd5, 0x69, 0xd2, 0xbf,
  0x00, 0x00, 0x00, 0x00, 0x00, 0x00, 0x00, 0x00, 0x00, 0x00, 0x00, 0x00,
  0x00, 0x00, 0x00, 0x00, 0x00, 0x00, 0x00, 0x00, 0x00, 0x00, 0x00, 0x00,
  0x00, 0x00, 0x00, 0x40, 0xa4, 0xbe, 0xc6, 0xbf, 0x00, 0x00, 0x00, 0xc0,
  0xb5, 0x4f, 0xc7, 0xbf, 0x00, 0x00, 0x00, 0x00, 0x6e, 0x41, 0xb2, 0xbf,
  0x00, 0x00, 0x00, 0x80, 0xe9, 0x09, 0xb6, 0x3f, 0x00, 0x00, 0x00, 0xa0,
  0xb9, 0xf1, 0xc0, 0x3f, 0x00, 0x00, 0x00, 0xc0, 0x5f, 0x55, 0xb7, 0x3f,
  0x00, 0x00, 0x00, 0x20, 0x01, 0xcc, 0xc0, 0x3f, 0x00, 0x00, 0x00, 0x20,
  0x5c, 0xf0, 0xaf, 0x3f, 0x00, 0x00, 0x00, 0xc0, 0x21, 0xb8, 0xad, 0x3f,
  0x00, 0x00, 0x00, 0x00, 0x00, 0x00, 0x00, 0x00, 0x00, 0x00, 0x00, 0x00,
  0x00, 0x00, 0x00, 0x00, 0x00, 0x00, 0x00, 0x00, 0x00, 0x00, 0x00, 0x00,
  0x00, 0x00, 0x00, 0x20, 0xd5, 0x6a, 0xcc, 0xbf, 0x00, 0x00, 0x00, 0x60,
  0x92, 0x11, 0xd2, 0x3f, 0x00, 0x00, 0x00, 0x00, 0xde, 0x4b, 0xa8, 0x3f,
  0x00, 0x00, 0x00, 0x20, 0x42, 0x28, 0xaa, 0xbf, 0x00, 0x00, 0x00, 0xe0,
  0x20, 0x7d, 0xb9, 0xbf, 0x00, 0x00, 0x00, 0xa0, 0x58, 0x6e, 0xc0, 0xbf,
  0x00, 0x00, 0x00, 0xa0, 0xd3, 0x42, 0xcf, 0xbf, 0x00, 0x00, 0x00, 0x20,
  0xcf, 0x35, 0xc3, 0xbf, 0x00, 0x00, 0x00, 0x40, 0x0b, 0xaf, 0xb4, 0xbf,
  0x00, 0x00, 0x00, 0x00, 0x00, 0x00, 0x00, 0x00, 0x00, 0x00, 0x00, 0x00,
  0x00, 0x00, 0x00, 0x00, 0x00, 0x00, 0x00, 0x00, 0x00, 0x00, 0x00, 0x00,
  0x00, 0x00, 0x00, 0x80, 0x18, 0xe8, 0x9e, 0x3f, 0x00, 0x00, 0x00, 0xc0,
  0x2e, 0xa9, 0xcd, 0x3f, 0x00, 0x00, 0x00, 0xa0, 0xae, 0xe3, 0xb9, 0xbf,
  0x00, 0x00, 0x00, 0xc0, 0x26, 0x99, 0x93, 0x3f, 0x00, 0x00, 0x00, 0x60,
  0x26, 0x71, 0xb9, 0xbf, 0x00, 0x00, 0x00, 0xe0, 0x56, 0x77, 0xca, 0xbf,
  0x00, 0x00, 0x00, 0x20, 0x55, 0x05, 0xbb, 0x3f, 0x00, 0x00, 0x00, 0x80,
  0xf5, 0x21, 0xc9, 0x3f, 0x00, 0x00, 0x00, 0xa0, 0x61, 0x52, 0xca, 0x3f,
  0x00, 0x00, 0x00, 0x00, 0x00, 0x00, 0x00, 0x00, 0x00, 0x00, 0x00, 0x00,
  0x00, 0x00, 0x00, 0x00, 0x00, 0x00, 0x00, 0x00, 0x00, 0x00, 0x00, 0x00,
  0x00, 0x00, 0x00, 0xe0, 0xeb, 0x1d, 0xbf, 0xbf, 0x00, 0x00, 0x00, 0xa0,
  0x08, 0x40, 0xa4, 0x3f, 0x00, 0x00, 0x00, 0x20, 0x3a, 0xfe, 0x96, 0x3f,
  0x00, 0x00, 0x00, 0xc0, 0x63, 0x6b, 0xa9, 0x3f, 0x00, 0x00, 0x00, 0x80,
  0xce, 0xc3, 0x89, 0x3f, 0x00, 0x00, 0x00, 0x20, 0x4c, 0x5b, 0xb0, 0x3f,
  0x00, 0x00, 0x00, 0x60, 0xe5, 0x39, 0x5b, 0xbf, 0x00, 0x00, 0x00, 0x20,
  0x1f, 0xc5, 0xb5, 0xbf, 0x00, 0x00, 0x00, 0x40, 0x7d, 0xa8, 0xc9, 0xbf,
  0x00, 0x00, 0x00, 0x00, 0x00, 0x00, 0x00, 0x00, 0x00, 0x00, 0x00, 0x00,
  0x00, 0x00, 0x00, 0x00, 0x00, 0x00, 0x00, 0x00, 0x00, 0x00, 0x00, 0x00,
  0x00, 0x00, 0x00, 0xe0, 0x1d, 0xb7, 0xa8, 0xbf, 0x00, 0x00, 0x00, 0x80,
  0x7c, 0x6d, 0xc5, 0xbf, 0x00, 0x00, 0x00, 0xa0, 0x5c, 0x6c, 0xbc, 0xbf,
  0x00, 0x00, 0x00, 0x80, 0xc6, 0x33, 0xd0, 0xbf, 0x00, 0x00, 0x00, 0xa0,
  0x57, 0xff, 0xc6, 0xbf, 0x00, 0x00, 0x00, 0xe0, 0x5d, 0xa5, 0xc5, 0xbf,
  0x00, 0x00, 0x00, 0x00, 0xf8, 0x51, 0xa9, 0x3f, 0x00, 0x00, 0x00, 0xe0,
  0xd2, 0xb0, 0x96, 0x3f, 0x00, 0x00, 0x00, 0xa0, 0x64, 0x68, 0x55, 0xbf,
  0x00, 0x00, 0x00, 0x00, 0x00, 0x00, 0x00, 0x00, 0x00, 0x00, 0x00, 0x00,
  0x00, 0x00, 0x00, 0x00, 0x00, 0x00, 0x00, 0x00, 0x00, 0x00, 0x00, 0x00,
  0x00, 0x00, 0x00, 0x60, 0x0f, 0x3d, 0xb9, 0xbf, 0x00, 0x00, 0x00, 0x20,
  0x35, 0x76, 0xb6, 0xbf, 0x00, 0x00, 0x00, 0x60, 0x64, 0x8c, 0xa4, 0xbf,
  0x00, 0x00, 0x00, 0x00, 0x87, 0x70, 0x98, 0xbf, 0x00, 0x00, 0x00, 0x60,
  0x97, 0x5e, 0x92, 0xbf, 0x00, 0x00, 0x00, 0x00, 0x89, 0xa7, 0xb9, 0x3f,
  0x00, 0x00, 0x00, 0x00, 0xbc, 0xd5, 0xbc, 0x3f, 0x00, 0x00, 0x00, 0x00,
  0x3b, 0x87, 0xb2, 0x3f, 0x00, 0x00, 0x00, 0xa0, 0x48, 0x83, 0xb6, 0x3f,
  0x00, 0x00, 0x00, 0x00, 0x00, 0x00, 0x00, 0x00, 0x00, 0x00, 0x00, 0x00,
  0x00, 0x00, 0x00, 0x00, 0x00, 0x00, 0x00, 0x00, 0x00, 0x00, 0x00, 0x00,
  0x00, 0x00, 0x00, 0x80, 0xc1, 0x50, 0xae, 0x3f, 0x00, 0x00, 0x00, 0x00,
  0x89, 0x11, 0x9c, 0x3f, 0x00, 0x00, 0x00, 0xe0, 0x81, 0xc5, 0x86, 0x3f,
  0x00, 0x00, 0x00, 0x20, 0xe1, 0x07, 0xc7, 0xbf, 0x00, 0x00, 0x00, 0xa0,
  0xba, 0x72, 0xaf, 0x3f, 0x00, 0x00, 0x00, 0x40, 0x39, 0xd9, 0x87, 0xbf,
  0x00, 0x00, 0x00, 0x40, 0x8d, 0x4f, 0xc6, 0x3f, 0x00, 0x00, 0x00, 0x60,
  0xb8, 0xb8, 0xd4, 0x3f, 0x00, 0x00, 0x00, 0x60, 0x35, 0x81, 0xc6, 0x3f,
  0x00, 0x00, 0x00, 0x00, 0x00, 0x00, 0x00, 0x00, 0x00, 0x00, 0x00, 0x00,
  0x00, 0x00, 0x00, 0x00, 0x00, 0x00, 0x00, 0x00, 0x00, 0x00, 0x00, 0x00,
  0x00, 0x00, 0x00, 0xa0, 0xec, 0x5c, 0xc8, 0x3f, 0x00, 0x00, 0x00, 0x00,
  0x98, 0x48, 0xc4, 0x3f, 0x00, 0x00, 0x00, 0xa0, 0x9a, 0xe9, 0xbc, 0x3f,
  0x00, 0x00, 0x00, 0xe0, 0x6a, 0x83, 0xc4, 0xbf, 0x00, 0x00, 0x00, 0x00,
  0xfa, 0xc4, 0xc6, 0xbf, 0x00, 0x00, 0x00, 0xa0, 0xe7, 0x39, 0x7a, 0xbf,
  0x00, 0x00, 0x00, 0x40, 0x71, 0xed, 0xc0, 0xbf, 0x00, 0x00, 0x00, 0xa0,
  0xa3, 0xa1, 0x95, 0xbf, 0x00, 0x00, 0x00, 0x80, 0x3e, 0x0e, 0xc0, 0xbf,
  0x00, 0x00, 0x00, 0x00, 0x00, 0x00, 0x00, 0x00, 0x00, 0x00, 0x00, 0x00,
  0x00, 0x00, 0x00, 0x00, 0x00, 0x00, 0x00, 0x00, 0x00, 0x00, 0x00, 0x00,
  0x00, 0x00, 0x00, 0x00, 0x3a, 0xeb, 0xb5, 0xbf, 0x00, 0x00, 0x00, 0xc0,
  0x62, 0xbe, 0xc1, 0xbf, 0x00, 0x00, 0x00, 0x80, 0x71, 0x26, 0xc8, 0xbf,
  0x00, 0x00, 0x00, 0x60, 0x9c, 0x37, 0xc1, 0xbf, 0x00, 0x00, 0x00, 0x80,
  0xa7, 0x1c, 0xc0, 0xbf, 0x00, 0x00, 0x00, 0x40, 0x9d, 0xab, 0xaa, 0xbf,
  0x00, 0x00, 0x00, 0x40, 0xb8, 0x41, 0xb1, 0x3f, 0x00, 0x00, 0x00, 0x40,
  0x0c, 0x07, 0xbb, 0xbf, 0x00, 0x00, 0x00, 0x40, 0xd8, 0xa5, 0xb6, 0xbf,
  0x00, 0x00, 0x00, 0x00, 0x00, 0x00, 0x00, 0x00, 0x00, 0x00, 0x00, 0x00,
  0x00, 0x00, 0x00, 0x00, 0x00, 0x00, 0x00, 0x00, 0x00, 0x00, 0x00, 0x00,
  0x00, 0x00, 0x00, 0x60, 0x30, 0xd7, 0xaa, 0xbf, 0x00, 0x00, 0x00, 0x00,
  0x7d, 0x8f, 0xaf, 0x3f, 0x00, 0x00, 0x00, 0x60, 0x98, 0xa3, 0xa9, 0xbf,
  0x00, 0x00, 0x00, 0xa0, 0x5b, 0x7b, 0x91, 0xbf, 0x00, 0x00, 0x00, 0x40,
  0x68, 0x51, 0x95, 0xbf, 0x00, 0x00, 0x00, 0xa0, 0x11, 0x50, 0xc0, 0xbf,
  0x00, 0x00, 0x00, 0x80, 0xad, 0x5d, 0xae, 0xbf, 0x00, 0x00, 0x00, 0x20,
  0x9e, 0xc1, 0xb2, 0xbf, 0x00, 0x00, 0x00, 0x20, 0x57, 0x32, 0x8e, 0xbf,
  0x00, 0x00, 0x00, 0x00, 0x00, 0x00, 0x00, 0x00, 0x00, 0x00, 0x00, 0x00,
  0x00, 0x00, 0x00, 0x00, 0x00, 0x00, 0x00, 0x00, 0x00, 0x00, 0x00, 0x00,
  0x00, 0x00, 0x00, 0x40, 0x7f, 0xca, 0xb1, 0xbf, 0x00, 0x00, 0x00, 0x60,
  0xfc, 0x34, 0xc5, 0xbf, 0x00, 0x00, 0x00, 0x60, 0x15, 0x90, 0xb1, 0xbf,
  0x00, 0x00, 0x00, 0x40, 0x66, 0x21, 0x8c, 0xbf, 0x00, 0x00, 0x00, 0x40,
  0xd9, 0x0d, 0xbd, 0xbf, 0x00, 0x00, 0x00, 0xc0, 0xab, 0xaa, 0xaa, 0x3f,
  0x00, 0x00, 0x00, 0xa0, 0x08, 0xb3, 0x94, 0xbf, 0x00, 0x00, 0x00, 0xa0,
  0x80, 0xea, 0xb1, 0xbf, 0x00, 0x00, 0x00, 0x20, 0xc3, 0xf9, 0xcf, 0xbf,
  0x00, 0x00, 0x00, 0x00, 0x00, 0x00, 0x00, 0x00, 0x00, 0x00, 0x00, 0x00,
  0x00, 0x00, 0x00, 0x00, 0x00, 0x00, 0x00, 0x00, 0x00, 0x00, 0x00, 0x00,
  0x00, 0x00, 0x00, 0x20, 0xa5, 0x9d, 0xb6, 0xbf, 0x00, 0x00, 0x00, 0xa0,
  0x17, 0xe0, 0x95, 0x3f, 0x00, 0x00, 0x00, 0xe0, 0x8d, 0x5d, 0xbb, 0x3f,
  0x00, 0x00, 0x00, 0x20, 0xbc, 0xba, 0x6c, 0xbf, 0x00, 0x00, 0x00, 0x80,
  0x64, 0x0f, 0x60, 0xbf, 0x00, 0x00, 0x00, 0x00, 0xa5, 0x84, 0x87, 0x3f,
  0x00, 0x00, 0x00, 0xc0, 0x79, 0xfd, 0xbd, 0x3f, 0x00, 0x00, 0x00, 0x00,
  0xbd, 0xc0, 0xa1, 0x3f, 0x00, 0x00, 0x00, 0x80, 0xcf, 0x9b, 0x8e, 0x3f,
  0x00, 0x00, 0x00, 0x00, 0x00, 0x00, 0x00, 0x00, 0x00, 0x00, 0x00, 0x00,
  0x00, 0x00, 0x00, 0x00, 0x00, 0x00, 0x00, 0x00, 0x00, 0x00, 0x00, 0x00,
  0x00, 0x00, 0x00, 0x40, 0xba, 0x7e, 0xc6, 0xbf, 0x00, 0x00, 0x00, 0xe0,
  0x48, 0xd8, 0xbf, 0xbf, 0x00, 0x00, 0x00, 0x40, 0xd5, 0xd5, 0xc6, 0xbf,
  0x00, 0x00, 0x00, 0xa0, 0x57, 0x80, 0xc7, 0xbf, 0x00, 0x00, 0x00, 0xe0,
  0x5f, 0x8c, 0xc1, 0xbf, 0x00, 0x00, 0x00, 0x80, 0x1f, 0xe8, 0xc5, 0xbf,
  0x00, 0x00, 0x00, 0x80, 0x29, 0x10, 0x7b, 0xbf, 0x00, 0x00, 0x00, 0xa0,
  0x74, 0x1d, 0xc0, 0xbf, 0x00, 0x00, 0x00, 0x60, 0x85, 0xd5, 0xc5, 0xbf,
  0x00, 0x00, 0x00, 0x00, 0x00, 0x00, 0x00, 0x00, 0x00, 0x00, 0x00, 0x00,
  0x00, 0x00, 0x00, 0x00, 0x00, 0x00, 0x00, 0x00, 0x00, 0x00, 0x00, 0x00,
  0x00, 0x00, 0x00, 0x20, 0x92, 0x7b, 0x89, 0xbf, 0x00, 0x00, 0x00, 0x60,
  0x0f, 0x04, 0xa9, 0x3f, 0x00, 0x00, 0x00, 0xc0, 0x7b, 0xab, 0x70, 0x3f,
  0x00, 0x00, 0x00, 0xc0, 0x23, 0x85, 0xa7, 0xbf, 0x00, 0x00, 0x00, 0x60,
  0xba, 0xc6, 0xb6, 0x3f, 0x00, 0x00, 0x00, 0x60, 0xbe, 0xad, 0xb3, 0x3f,
  0x00, 0x00, 0x00, 0x00, 0x3a, 0x1d, 0xbd, 0x3f, 0x00, 0x00, 0x00, 0xe0,
  0x3c, 0x2d, 0x9c, 0x3f, 0x00, 0x00, 0x00, 0x40, 0xaf, 0xa5, 0xae, 0xbf,
  0x00, 0x00, 0x00, 0x00, 0x00, 0x00, 0x00, 0x00, 0x00, 0x00, 0x00, 0x00,
  0x00, 0x00, 0x00, 0x00, 0x00, 0x00, 0x00, 0x00, 0x00, 0x00, 0x00, 0x00,
  0x00, 0x00, 0x00, 0xc0, 0x4c, 0xf4, 0xcd, 0xbf, 0x00, 0x00, 0x00, 0x20,
  0x01, 0x52, 0xa0, 0xbf, 0x00, 0x00, 0x00, 0x80, 0xeb, 0x89, 0xb9, 0xbf,
  0x00, 0x00, 0x00, 0x00, 0x6e, 0x12, 0xb7, 0xbf, 0x00, 0x00, 0x00, 0x00,
  0x77, 0x64, 0xc8, 0xbf, 0x00, 0x00, 0x00, 0xa0, 0xf0, 0x1c, 0x9a, 0xbf,
  0x00, 0x00, 0x00, 0xa0, 0x1e, 0x6a, 0xb7, 0xbf, 0x00, 0x00, 0x00, 0x00,
  0xb7, 0xa7, 0xc6, 0xbf, 0x00, 0x00, 0x00, 0x40, 0xfd, 0x6b, 0xc0, 0xbf,
  0x00, 0x00, 0x00, 0x00, 0x00, 0x00, 0x00, 0x00, 0x00, 0x00, 0x00, 0x00,
  0x00, 0x00, 0x00, 0x00, 0x00, 0x00, 0x00, 0x00, 0x00, 0x00, 0x00, 0x00,
  0x00, 0x00, 0x00, 0x80, 0x86, 0x47, 0xb8, 0x3f, 0x00, 0x00, 0x00, 0x40,
  0xd6, 0x0a, 0xc3, 0x3f, 0x00, 0x00, 0x00, 0x00, 0x5b, 0x68, 0x91, 0x3f,
  0x00, 0x00, 0x00, 0xa0, 0xc6, 0xbc, 0xb6, 0x3f, 0x00, 0x00, 0x00, 0x20,
  0x48, 0x3e, 0x98, 0x3f, 0x00, 0x00, 0x00, 0xa0, 0xa7, 0x70, 0xaf, 0x3f,
  0x00, 0x00, 0x00, 0x40, 0x8b, 0x9a, 0x9b, 0x3f, 0x00, 0x00, 0x00, 0x60,
  0x19, 0xec, 0x91, 0x3f, 0x00, 0x00, 0x00, 0x80, 0x4a, 0x4d, 0xaf, 0x3f,
  0x00, 0x00, 0x00, 0x00, 0x00, 0x00, 0x00, 0x00, 0x00, 0x00, 0x00, 0x00,
  0x00, 0x00, 0x00, 0x00, 0x00, 0x00, 0x00, 0x00, 0x00, 0x00, 0x00, 0x00,
  0x00, 0x00, 0x00, 0x80, 0xd6, 0xfd, 0xa8, 0x3f, 0x00, 0x00, 0x00, 0x80,
  0xa5, 0xd8, 0xc3, 0x3f, 0x00, 0x00, 0x00, 0x40, 0x9e, 0x20, 0xa1, 0xbf,
  0x00, 0x00, 0x00, 0xc0, 0x08, 0x64, 0xb7, 0x3f, 0x00, 0x00, 0x00, 0x80,
  0x73, 0x41, 0xd0, 0x3f, 0x00, 0x00, 0x00, 0x80, 0xd0, 0xf5, 0xc8, 0x3f,
  0x00, 0x00, 0x00, 0x60, 0xb8, 0x0a, 0xb7, 0x3f, 0x00, 0x00, 0x00, 0xe0,
  0xd2, 0xca, 0xce, 0x3f, 0x00, 0x00, 0x00, 0x40, 0x8d, 0xb8, 0xd0, 0x3f,
  0x00, 0x00, 0x00, 0x00, 0x00, 0x00, 0x00, 0x00, 0x00, 0x00, 0x00, 0x00,
  0x00, 0x00, 0x00, 0x00, 0x00, 0x00, 0x00, 0x00, 0x00, 0x00, 0x00, 0x00,
  0x00, 0x00, 0x00, 0xc0, 0x6c, 0xa7, 0xc9, 0x3f, 0x00, 0x00, 0x00, 0x60,
  0xae, 0x7f, 0xc5, 0x3f, 0x00, 0x00, 0x00, 0x40, 0xa6, 0x58, 0xbd, 0xbf,
  0x00, 0x00, 0x00, 0xe0, 0x35, 0x0b, 0x74, 0xbf, 0x00, 0x00, 0x00, 0x40,
  0xd2, 0xf8, 0xba, 0xbf, 0x00, 0x00, 0x00, 0xa0, 0xbe, 0xe4, 0xb1, 0xbf,
  0x00, 0x00, 0x00, 0x40, 0xcd, 0xa6, 0xb1, 0xbf, 0x00, 0x00, 0x00, 0x80,
  0x49, 0x1e, 0xa8, 0xbf, 0x00, 0x00, 0x00, 0x60, 0x55, 0xd0, 0xa9, 0xbf,
  0x00, 0x00, 0x00, 0x00, 0x00, 0x00, 0x00, 0x00, 0x00, 0x00, 0x00, 0x00,
  0x00, 0x00, 0x00, 0x00, 0x00, 0x00, 0x00, 0x00, 0x00, 0x00, 0x00, 0x00,
  0x00, 0x00, 0x00, 0x00, 0x32, 0xda, 0xa1, 0xbf, 0x00, 0x00, 0x00, 0x20,
  0xc5, 0xb7, 0xcc, 0xbf, 0x00, 0x00, 0x00, 0x20, 0xa1, 0xd7, 0xc4, 0x3f,
  0x00, 0x00, 0x00, 0x40, 0x24, 0xa0, 0xd9, 0x3f, 0x00, 0x00, 0x00, 0x00,
  0xa7, 0x07, 0xce, 0x3f, 0x00, 0x00, 0x00, 0xa0, 0xfb, 0x21, 0xb9, 0x3f,
  0x00, 0x00, 0x00, 0xc0, 0x83, 0x00, 0xc4, 0x3f, 0x00, 0x00, 0x00, 0x40,
  0x82, 0x3c, 0x92, 0x3f, 0x00, 0x00, 0x00, 0x20, 0x34, 0x21, 0xab, 0xbf,
  0x00, 0x00, 0x00, 0x00, 0x00, 0x00, 0x00, 0x00, 0x00, 0x00, 0x00, 0x00,
  0x00, 0x00, 0x00, 0x00, 0x00, 0x00, 0x00, 0x00, 0x00, 0x00, 0x00, 0x00,
  0x00, 0x00, 0x00, 0xa0, 0x8a, 0x7c, 0xb7, 0x3f, 0x00, 0x00, 0x00, 0xc0,
  0xd4, 0xdd, 0x9d, 0xbf, 0x00, 0x00, 0x00, 0x20, 0x93, 0xe2, 0xb2, 0xbf,
  0x00, 0x00, 0x00, 0xe0, 0x38, 0xef, 0x75, 0xbf, 0x00, 0x00, 0x00, 0x40,
  0x86, 0x10, 0x84, 0xbf, 0x00, 0x00, 0x00, 0xa0, 0xee, 0x43, 0xc3, 0x3f,
  0x00, 0x00, 0x00, 0xc0, 0x59, 0x52, 0xae, 0xbf, 0x00, 0x00, 0x00, 0x60,
  0xc7, 0x03, 0xb1, 0x3f, 0x00, 0x00, 0x00, 0xe0, 0xe2, 0xaa, 0x94, 0x3f,
  0x00, 0x00, 0x00, 0x00, 0x00, 0x00, 0x00, 0x00, 0x00, 0x00, 0x00, 0x00,
  0x00, 0x00, 0x00, 0x00, 0x00, 0x00, 0x00, 0x00, 0x00, 0x00, 0x00, 0x00,
  0x00, 0x00, 0x00, 0x60, 0x1f, 0xa7, 0x85, 0xbf, 0x00, 0x00, 0x00, 0x20,
  0xfe, 0xc8, 0xbf, 0x3f, 0x00, 0x00, 0x00, 0x60, 0x7c, 0x47, 0xc7, 0x3f,
  0x00, 0x00, 0x00, 0xa0, 0x9f, 0x0a, 0xaf, 0x3f, 0x00, 0x00, 0x00, 0x80,
  0x5b, 0x88, 0xd4, 0x3f, 0x00, 0x00, 0x00, 0x40, 0xd4, 0x33, 0xcf, 0x3f,
  0x00, 0x00, 0x00, 0xe0, 0xd1, 0xb5, 0xca, 0x3f, 0x00, 0x00, 0x00, 0x40,
  0x62, 0xd3, 0xb5, 0x3f, 0x00, 0x00, 0x00, 0x00, 0x16, 0x0a, 0xc0, 0x3f,
  0x00, 0x00, 0x00, 0x00, 0x00, 0x00, 0x00, 0x00, 0x00, 0x00, 0x00, 0x00,
  0x00, 0x00, 0x00, 0x00, 0x00, 0x00, 0x00, 0x00, 0x00, 0x00, 0x00, 0x00,
  0x00, 0x00, 0x00, 0xe0, 0xc1, 0x48, 0xd0, 0xbf, 0x00, 0x00, 0x00, 0xe0,
  0x51, 0x0b, 0xb1, 0xbf, 0x00, 0x00, 0x00, 0x80, 0x3b, 0x32, 0x82, 0x3f,
  0x00, 0x00, 0x00, 0x00, 0x97, 0x61, 0xc8, 0xbf, 0x00, 0x00, 0x00, 0x40,
  0x30, 0xd2, 0x8b, 0xbf, 0x00, 0x00, 0x00, 0xc0, 0xbb, 0xe8, 0xab, 0xbf,
  0x00, 0x00, 0x00, 0x20, 0xb0, 0x36, 0x72, 0xbf, 0x00, 0x00, 0x00, 0x40,
  0x26, 0x64, 0xc4, 0xbf, 0x00, 0x00, 0x00, 0x60, 0x83, 0xc0, 0xbf, 0xbf,
  0x00, 0x00, 0x00, 0x00, 0x00, 0x00, 0x00, 0x00, 0x00, 0x00, 0x00, 0x00,
  0x00, 0x00, 0x00, 0x00, 0x00, 0x00, 0x00, 0x00, 0x00, 0x00, 0x00, 0x00,
  0x00, 0x00, 0x00, 0xc0, 0x97, 0xfd, 0xb0, 0xbf, 0x00, 0x00, 0x00, 0x60,
  0xdd, 0xc7, 0xaa, 0x3f, 0x00, 0x00, 0x00, 0x00, 0xca, 0xd0, 0xc0, 0x3f,
  0x00, 0x00, 0x00, 0xc0, 0x4c, 0xb0, 0xb1, 0x3f, 0x00, 0x00, 0x00, 0xe0,
  0x8c, 0x01, 0xaf, 0xbf, 0x00, 0x00, 0x00, 0x60, 0xc2, 0x28, 0xb2, 0x3f,
  0x00, 0x00, 0x00, 0x40, 0xe0, 0x10, 0x92, 0xbf, 0x00, 0x00, 0x00, 0x80,
  0x3c, 0x7f, 0xcd, 0xbf, 0x00, 0x00, 0x00, 0x60, 0xd4, 0x24, 0xae, 0xbf,
  0x00, 0x00, 0x00, 0x00, 0x00, 0x00, 0x00, 0x00, 0x00, 0x00, 0x00, 0x00,
  0x00, 0x00, 0x00, 0x00, 0x00, 0x00, 0x00, 0x00, 0x00, 0x00, 0x00, 0x00,
  0x00, 0x00, 0x00, 0x20, 0x8e, 0x6f, 0xc0, 0xbf, 0x00, 0x00, 0x00, 0x00,
  0xcb, 0x69, 0xc8, 0xbf, 0x00, 0x00, 0x00, 0xe0, 0xb8, 0x2c, 0xd9, 0xbf,
  0x00, 0x00, 0x00, 0xe0, 0xc3, 0xb8, 0xb5, 0xbf, 0x00, 0x00, 0x00, 0x60,
  0xe8, 0xda, 0x91, 0xbf, 0x00, 0x00, 0x00, 0x80, 0x49, 0xea, 0xce, 0x3f,
  0x00, 0x00, 0x00, 0xe0, 0xe2, 0x85, 0x47, 0x3f, 0x00, 0x00, 0x00, 0xe0,
  0x32, 0x5e, 0xa8, 0x3f, 0x00, 0x00, 0x00, 0xa0, 0x65, 0xb8, 0xc0, 0x3f,
  0x00, 0x00, 0x00, 0x00, 0x00, 0x00, 0x00, 0x00, 0x00, 0x00, 0x00, 0x00,
  0x00, 0x00, 0x00, 0x00, 0x00, 0x00, 0x00, 0x00, 0x00, 0x00, 0x00, 0x00,
  0x00, 0x00, 0x00, 0xc0, 0x88, 0x7d, 0xab, 0xbf, 0x00, 0x00, 0x00, 0xa0,
  0x62, 0xf6, 0xcb, 0xbf, 0x00, 0x00, 0x00, 0xe0, 0x38, 0xe6, 0xc9, 0xbf,
  0x00, 0x00, 0x00, 0x40, 0xb5, 0xa0, 0xb8, 0xbf, 0x00, 0x00, 0x00, 0x80,
  0x3e, 0x6f, 0xac, 0x3f, 0x00, 0x00, 0x00, 0xc0, 0xd2, 0xe8, 0x97, 0x3f,
  0x00, 0x00, 0x00, 0x20, 0x4b, 0x68, 0x72, 0x3f, 0x00, 0x00, 0x00, 0xc0,
  0x5b, 0x6f, 0x72, 0x3f, 0x00, 0x00, 0x00, 0x60, 0x44, 0x7b, 0x97, 0x3f,
  0x00, 0x00, 0x00, 0x00, 0x00, 0x00, 0x00, 0x00, 0x00, 0x00, 0x00, 0x00,
  0x00, 0x00, 0x00, 0x00, 0x00, 0x00, 0x00, 0x00, 0x00, 0x00, 0x00, 0x00,
  0x00, 0x00, 0x00, 0xa0, 0x3b, 0x1b, 0x66, 0x3f, 0x00, 0x00, 0x00, 0x60,
  0x79, 0x7a, 0xba, 0x3f, 0x00, 0x00, 0x00, 0xe0, 0x50, 0x54, 0xbb, 0x3f,
  0x00, 0x00, 0x00, 0x80, 0xe3, 0xc7, 0x97, 0x3f, 0x00, 0x00, 0x00, 0x40,
  0x47, 0x88, 0xd2, 0xbf, 0x00, 0x00, 0x00, 0x60, 0xf6, 0x51, 0xbb, 0xbf,
  0x00, 0x00, 0x00, 0xe0, 0x03, 0x9c, 0xcc, 0xbf, 0x00, 0x00, 0x00, 0xc0,
  0x59, 0xc5, 0x9b, 0xbf, 0x00, 0x00, 0x00, 0x00, 0x7e, 0x2d, 0xa8, 0x3f,
  0x00, 0x00, 0x00, 0x00, 0x00, 0x00, 0x00, 0x00, 0x00, 0x00, 0x00, 0x00,
  0x00, 0x00, 0x00, 0x00, 0x00, 0x00, 0x00, 0x00, 0x00, 0x00, 0x00, 0x00,
  0x00, 0x00, 0x00, 0x20, 0x06, 0x20, 0xbb, 0x3f, 0x00, 0x00, 0x00, 0x80,
  0x4d, 0x88, 0xbb, 0x3f, 0x00, 0x00, 0x00, 0xa0, 0x50, 0x8f, 0xb3, 0xbf,
  0x00, 0x00, 0x00, 0x60, 0x63, 0xd0, 0xa9, 0xbf, 0x00, 0x00, 0x00, 0x00,
  0xb2, 0xa2, 0xe2, 0xbf, 0x00, 0x00, 0x00, 0x40, 0x0e, 0xb3, 0xc5, 0xbf,
  0x00, 0x00, 0x00, 0xc0, 0x7e, 0x01, 0xb3, 0x3f, 0x00, 0x00, 0x00, 0xa0,
  0xb4, 0xa6, 0xb0, 0xbf, 0x00, 0x00, 0x00, 0xc0, 0xe4, 0x8b, 0x90, 0xbf,
  0x00, 0x00, 0x00, 0x00, 0x00, 0x00, 0x00, 0x00, 0x00, 0x00, 0x00, 0x00,
  0x00, 0x00, 0x00, 0x00, 0x00, 0x00, 0x00, 0x00, 0x00, 0x00, 0x00, 0x00,
  0x00, 0x00, 0x00, 0x20, 0x24, 0x33, 0xa0, 0xbf, 0x00, 0x00, 0x00, 0xc0,
  0xc1, 0x6b, 0x88, 0x3f, 0x00, 0x00, 0x00, 0x40, 0xcb, 0x15, 0xae, 0xbf,
  0x00, 0x00, 0x00, 0x80, 0x7b, 0x54, 0xbe, 0xbf, 0x00, 0x00, 0x00, 0x20,
  0x78, 0xfe, 0xbe, 0xbf, 0x00, 0x00, 0x00, 0xe0, 0x52, 0xbe, 0xac, 0x3f,
  0x00, 0x00, 0x00, 0x80, 0xbb, 0x1b, 0xaa, 0x3f, 0x00, 0x00, 0x00, 0x80,
  0x4c, 0xaf, 0xb4, 0x3f, 0x00, 0x00, 0x00, 0x80, 0x5d, 0xae, 0xa0, 0xbf,
  0x00, 0x00, 0x00, 0x00, 0x00, 0x00, 0x00, 0x00, 0x00, 0x00, 0x00, 0x00,
  0x00, 0x00, 0x00, 0x00, 0x00, 0x00, 0x00, 0x00, 0x00, 0x00, 0x00, 0x00,
  0x00, 0x00, 0x00, 0xe0, 0xd6, 0x3c, 0xb1, 0xbf, 0x00, 0x00, 0x00, 0xa0,
  0x11, 0xb7, 0xd2, 0xbf, 0x00, 0x00, 0x00, 0x00, 0xec, 0x8e, 0xb8, 0xbf,
  0x00, 0x00, 0x00, 0x80, 0xfd, 0x24, 0xa7, 0xbf, 0x00, 0x00, 0x00, 0x20,
  0x81, 0xf5, 0xa1, 0xbf, 0x00, 0x00, 0x00, 0x80, 0x8f, 0xbe, 0xce, 0xbf,
  0x00, 0x00, 0x00, 0x20, 0xb7, 0xe2, 0xd1, 0xbf, 0x00, 0x00, 0x00, 0xe0,
  0x37, 0x83, 0xca, 0xbf, 0x00, 0x00, 0x00, 0x80, 0x3c, 0x0d, 0xd3, 0xbf,
  0x00, 0x00, 0x00, 0x00, 0x00, 0x00, 0x00, 0x00, 0x00, 0x00, 0x00, 0x00,
  0x00, 0x00, 0x00, 0x00, 0x00, 0x00, 0x00, 0x00, 0x00, 0x00, 0x00, 0x00,
  0x00, 0x00, 0x00, 0x40, 0xdb, 0x5f, 0xbc, 0xbf, 0x00, 0x00, 0x00, 0x80,
  0xe4, 0x4a, 0xc2, 0x3f, 0x00, 0x00, 0x00, 0xe0, 0xb8, 0x84, 0xc1, 0x3f,
  0x00, 0x00, 0x00, 0x60, 0x3d, 0xbb, 0xa9, 0x3f, 0x00, 0x00, 0x00, 0x00,
  0x93, 0x85, 0xb1, 0x3f, 0x00, 0x00, 0x00, 0x20, 0x3f, 0x74, 0xc8, 0xbf,
  0x00, 0x00, 0x00, 0x00, 0x32, 0x09, 0xd3, 0xbf, 0x00, 0x00, 0x00, 0xc0,
  0xb5, 0x7c, 0xc3, 0xbf, 0x00, 0x00, 0x00, 0x80, 0xda, 0x7d, 0xad, 0xbf,
  0x00, 0x00, 0x00, 0x00, 0x00, 0x00, 0x00, 0x00, 0x00, 0x00, 0x00, 0x00,
  0x00, 0x00, 0x00, 0x00, 0x00, 0x00, 0x00, 0x00, 0x00, 0x00, 0x00, 0x00,
  0x00, 0x00, 0x00, 0xe0, 0xd8, 0xce, 0x91, 0x3f, 0x00, 0x00, 0x00, 0xa0,
  0xbf, 0xc6, 0xb9, 0xbf, 0x00, 0x00, 0x00, 0x80, 0x69, 0x8b, 0x9b, 0x3f,
  0x00, 0x00, 0x00, 0xa0, 0xbe, 0x52, 0xa0, 0x3f, 0x00, 0x00, 0x00, 0x20,
  0xbc, 0x3d, 0xad, 0x3f, 0x00, 0x00, 0x00, 0x80, 0xe7, 0x3e, 0xc7, 0x3f,
  0x00, 0x00, 0x00, 0x00, 0xc1, 0xb6, 0xc9, 0x3f, 0x00, 0x00, 0x00, 0xa0,
  0xe3, 0x3c, 0x94, 0xbf, 0x00, 0x00, 0x00, 0x60, 0x16, 0x4b, 0x59, 0xbf,
  0x00, 0x00, 0x00, 0x00, 0x00, 0x00, 0x00, 0x00, 0x00, 0x00, 0x00, 0x00,
  0x00, 0x00, 0x00, 0x00, 0x00, 0x00, 0x00, 0x00, 0x00, 0x00, 0x00, 0x00,
  0x00, 0x00, 0x00, 0x20, 0x57, 0x54, 0xbe, 0x3f, 0x00, 0x00, 0x00, 0x60,
  0xb9, 0x56, 0xd2, 0x3f, 0x00, 0x00, 0x00, 0x40, 0x12, 0xc8, 0xc0, 0x3f,
  0x00, 0x00, 0x00, 0x00, 0x57, 0x5d, 0xc6, 0x3f, 0x00, 0x00, 0x00, 0x40,
  0x5c, 0x3d, 0x99, 0xbf, 0x00, 0x00, 0x00, 0xc0, 0xc8, 0x1c, 0xcc, 0xbf,
  0x00, 0x00, 0x00, 0xa0, 0x95, 0x2e, 0x86, 0x3f, 0x00, 0x00, 0x00, 0xc0,
  0x06, 0xbb, 0xa2, 0x3f, 0x00, 0x00, 0x00, 0x40, 0x66, 0x7f, 0xc3, 0x3f,
  0x00, 0x00, 0x00, 0x00, 0x00, 0x00, 0x00, 0x00, 0x00, 0x00, 0x00, 0x00,
  0x00, 0x00, 0x00, 0x00, 0x00, 0x00, 0x00, 0x00, 0x00, 0x00, 0x00, 0x00,
  0x00, 0x00, 0x00, 0x80, 0xf1, 0x30, 0xc2, 0x3f, 0x00, 0x00, 0x00, 0xe0,
  0x33, 0xdb, 0xad, 0x3f, 0x00, 0x00, 0x00, 0x80, 0x20, 0xb3, 0xb0, 0x3f,
  0x00, 0x00, 0x00, 0x20, 0xc5, 0x86, 0xae, 0xbf, 0x00, 0x00, 0x00, 0x20,
  0x2b, 0x11, 0xb1, 0x3f, 0x00, 0x00, 0x00, 0xa0, 0x65, 0x41, 0xb3, 0x3f,
  0x00, 0x00, 0x00, 0x20, 0x69, 0x77, 0xa3, 0xbf, 0x00, 0x00, 0x00, 0x80,
  0x5f, 0xc4, 0x97, 0xbf, 0x00, 0x00, 0x00, 0xa0, 0x38, 0x21, 0xc5, 0xbf,
  0x00, 0x00, 0x00, 0x00, 0x00, 0x00, 0x00, 0x00, 0x00, 0x00, 0x00, 0x00,
  0x00, 0x00, 0x00, 0x00, 0x00, 0x00, 0x00, 0x00, 0x00, 0x00, 0x00, 0x00,
  0x00, 0x00, 0x00, 0xe0, 0x93, 0xb6, 0xa0, 0xbf, 0x00, 0x00, 0x00, 0xa0,
  0xdb, 0x29, 0xc4, 0x3f, 0x00, 0x00, 0x00, 0x80, 0x81, 0xa1, 0xab, 0x3f,
  0x00, 0x00, 0x00, 0xa0, 0xb7, 0xc8, 0xc2, 0x3f, 0x00, 0x00, 0x00, 0xc0,
  0x7c, 0xd3, 0x99, 0xbf, 0x00, 0x00, 0x00, 0x40, 0x8f, 0xe1, 0xb3, 0xbf,
  0x00, 0x00, 0x00, 0x00, 0x00, 0x0b, 0xc9, 0xbf, 0x00, 0x00, 0x00, 0x00,
  0x82, 0x5b, 0xb1, 0xbf, 0x00, 0x00, 0x00, 0xc0, 0xfd, 0xdd, 0x92, 0xbf,
  0x00, 0x00, 0x00, 0x00, 0x00, 0x00, 0x00, 0x00, 0x00, 0x00, 0x00, 0x00,
  0x00, 0x00, 0x00, 0x00, 0x00, 0x00, 0x00, 0x00, 0x00, 0x00, 0x00, 0x00,
  0x00, 0x00, 0x00, 0x80, 0x69, 0x08, 0xc0, 0xbf, 0x00, 0x00, 0x00, 0x60,
  0x92, 0x54, 0xb4, 0xbf, 0x00, 0x00, 0x00, 0x40, 0x85, 0xa8, 0xbf, 0x3f,
  0x00, 0x00, 0x00, 0xc0, 0xc9, 0xaf, 0xa4, 0xbf, 0x00, 0x00, 0x00, 0x40,
  0x74, 0xf8, 0xa4, 0xbf, 0x00, 0x00, 0x00, 0x00, 0x37, 0x1a, 0xcd, 0xbf,
  0x00, 0x00, 0x00, 0x20, 0xf2, 0x94, 0xce, 0xbf, 0x00, 0x00, 0x00, 0x40,
  0x1f, 0xa6, 0x98, 0xbf, 0x00, 0x00, 0x00, 0x20, 0xb9, 0x25, 0xb7, 0xbf,
  0x00, 0x00, 0x00, 0x00, 0x00, 0x00, 0x00, 0x00, 0x00, 0x00, 0x00, 0x00,
  0x00, 0x00, 0x00, 0x00, 0x00, 0x00, 0x00, 0x00, 0x00, 0x00, 0x00, 0x00,
  0x00, 0x00, 0x00, 0x00, 0x7d, 0x5c, 0xa7, 0x3f, 0x00, 0x00, 0x00, 0x40,
  0xca, 0xa7, 0xaf, 0x3f, 0x00, 0x00, 0x00, 0x80, 0x5c, 0x9c, 0x9c, 0x3f,
  0x00, 0x00, 0x00, 0x20, 0x96, 0x94, 0xb4, 0x3f, 0x00, 0x00, 0x00, 0x60,
  0x02, 0x08, 0xb4, 0xbf, 0x00, 0x00, 0x00, 0x60, 0x4e, 0xfa, 0xb9, 0xbf,
  0x00, 0x00, 0x00, 0xe0, 0xda, 0x42, 0xd1, 0x3f, 0x00, 0x00, 0x00, 0x40,
  0x5d, 0xf3, 0xd6, 0x3f, 0x00, 0x00, 0x00, 0x80, 0xc2, 0x43, 0xd6, 0x3f,
  0x00, 0x00, 0x00, 0x00, 0x00, 0x00, 0x00, 0x00, 0x00, 0x00, 0x00, 0x00,
  0x00, 0x00, 0x00, 0x00, 0x00, 0x00, 0x00, 0x00, 0x00, 0x00, 0x00, 0x00,
  0x00, 0x00, 0x00, 0xc0, 0xc1, 0xe0, 0xc5, 0x3f, 0x00, 0x00, 0x00, 0x00,
  0xcf, 0xa9, 0x8a, 0x3f, 0x00, 0x00, 0x00, 0x60, 0xff, 0xd8, 0xb2, 0x3f,
  0x00, 0x00, 0x00, 0xe0, 0x30, 0xcf, 0xb7, 0x3f, 0x00, 0x00, 0x00, 0x20,
  0xe5, 0xec, 0x9d, 0x3f, 0x00, 0x00, 0x00, 0xe0, 0xfb, 0x0c, 0xc3, 0x3f,
  0x00, 0x00, 0x00, 0x60, 0xc0, 0xa8, 0xb1, 0xbf, 0x00, 0x00, 0x00, 0x40,
  0x14, 0x43, 0xb0, 0xbf, 0x00, 0x00, 0x00, 0x00, 0x41, 0x28, 0x92, 0xbf,
  0x00, 0x00, 0x00, 0x00, 0x00, 0x00, 0x00, 0x00, 0x00, 0x00, 0x00, 0x00,
  0x00, 0x00, 0x00, 0x00, 0x00, 0x00, 0x00, 0x00, 0x00, 0x00, 0x00, 0x00,
  0x00, 0x00, 0x00, 0x80, 0x54, 0x66, 0xa7, 0x3f, 0x00, 0x00, 0x00, 0xc0,
  0x43, 0x9c, 0x94, 0xbf, 0x00, 0x00, 0x00, 0x40, 0x39, 0x7c, 0xa7, 0x3f,
  0x00, 0x00, 0x00, 0x40, 0x4a, 0x26, 0xca, 0x3f, 0x00, 0x00, 0x00, 0x60,
  0xd5, 0xbd, 0x91, 0xbf, 0x00, 0x00, 0x00, 0x60, 0xac, 0x59, 0xbb, 0xbf,
  0x00, 0x00, 0x00, 0xe0, 0xa8, 0x40, 0xa3, 0xbf, 0x00, 0x00, 0x00, 0x40,
  0x68, 0xb8, 0xb6, 0x3f, 0x00, 0x00, 0x00, 0x80, 0x48, 0x0c, 0xd5, 0x3f,
  0x00, 0x00, 0x00, 0x00, 0x00, 0x00, 0x00, 0x00, 0x00, 0x00, 0x00, 0x00,
  0x00, 0x00, 0x00, 0x00, 0x00, 0x00, 0x00, 0x00, 0x00, 0x00, 0x00, 0x00,
  0x00, 0x00, 0x00, 0x20, 0xa5, 0xe9, 0xac, 0xbf, 0x00, 0x00, 0x00, 0xc0,
  0xbb, 0x69, 0xab, 0x3f, 0x00, 0x00, 0x00, 0xc0, 0xc8, 0x7e, 0x54, 0xbf,
  0x00, 0x00, 0x00, 0xa0, 0xf6, 0xfe, 0xcb, 0xbf, 0x00, 0x00, 0x00, 0x40,
  0x17, 0x19, 0xce, 0xbf, 0x00, 0x00, 0x00, 0x80, 0xca, 0x3b, 0x9c, 0x3f,
  0x00, 0x00, 0x00, 0xc0, 0x83, 0xae, 0xb2, 0xbf, 0x00, 0x00, 0x00, 0x20,
  0xcf, 0x2d, 0xc4, 0x3f, 0x00, 0x00, 0x00, 0x40, 0xdc, 0x37, 0xb6, 0x3f,
  0x00, 0x00, 0x00, 0x00, 0x00, 0x00, 0x00, 0x00, 0x00, 0x00, 0x00, 0x00,
  0x00, 0x00, 0x00, 0x00, 0x00, 0x00, 0x00, 0x00, 0x00, 0x00, 0x00, 0x00,
  0x00, 0x00, 0x00, 0x80, 0x07, 0x29, 0xc9, 0xbf, 0x00, 0x00, 0x00, 0x40,
  0x27, 0xe3, 0x91, 0x3f, 0x00, 0x00, 0x00, 0x80, 0x3b, 0x5e, 0xc0, 0xbf,
  0x00, 0x00, 0x00, 0xe0, 0x28, 0x72, 0x68, 0x3f, 0x00, 0x00, 0x00, 0x60,
  0xa4, 0x3c, 0xa3, 0xbf, 0x00, 0x00, 0x00, 0xa0, 0xc0, 0x93, 0xa5, 0xbf,
  0x00, 0x00, 0x00, 0x20, 0xce, 0x3f, 0x96, 0x3f, 0x00, 0x00, 0x00, 0xa0,
  0xcd, 0x07, 0xc6, 0xbf, 0x00, 0x00, 0x00, 0x80, 0xd8, 0x48, 0xc7, 0xbf,
  0x00, 0x00, 0x00, 0x00, 0x00, 0x00, 0x00, 0x00, 0x00, 0x00, 0x00, 0x00,
  0x00, 0x00, 0x00, 0x00, 0x00, 0x00, 0x00, 0x00, 0x00, 0x00, 0x00, 0x00,
  0x00, 0x00, 0x00, 0x40, 0xe5, 0x93, 0xb2, 0x3f, 0x00, 0x00, 0x00, 0x60,
  0x2e, 0x67, 0xb4, 0x3f, 0x00, 0x00, 0x00, 0x20, 0x9f, 0x3a, 0xc2, 0x3f,
  0x00, 0x00, 0x00, 0xc0, 0x0b, 0x63, 0xd2, 0x3f, 0x00, 0x00, 0x00, 0xc0,
  0x35, 0xa7, 0xc5, 0x3f, 0x00, 0x00, 0x00, 0xa0, 0xd6, 0x43, 0xb6, 0xbf,
  0x00, 0x00, 0x00, 0xc0, 0xf9, 0x12, 0x9a, 0x3f, 0x00, 0x00, 0x00, 0x80,
  0xdf, 0x62, 0xad, 0x3f, 0x00, 0x00, 0x00, 0x20, 0x08, 0x1a, 0xa3, 0xbf,
  0x00, 0x00, 0x00, 0x00, 0x00, 0x00, 0x00, 0x00, 0x00, 0x00, 0x00, 0x00,
  0x00, 0x00, 0x00, 0x00, 0x00, 0x00, 0x00, 0x00, 0x00, 0x00, 0x00, 0x00,
  0x00, 0x00, 0x00, 0x40, 0x91, 0x96, 0xa9, 0x3f, 0x00, 0x00, 0x00, 0xe0,
  0xcd, 0x9a, 0xd1, 0x3f, 0x00, 0x00, 0x00, 0x40, 0xc6, 0x26, 0x95, 0x3f,
  0x00, 0x00, 0x00, 0xe0, 0xff, 0x9e, 0xb7, 0x3f, 0x00, 0x00, 0x00, 0x40,
  0x94, 0x73, 0xd5, 0xbf, 0x00, 0x00, 0x00, 0xe0, 0x0a, 0x23, 0xce, 0xbf,
  0x00, 0x00, 0x00, 0x40, 0x97, 0x86, 0xcc, 0xbf, 0x00, 0x00, 0x00, 0x40,
  0xe1, 0xc1, 0xa5, 0x3f, 0x00, 0x00, 0x00, 0x40, 0x68, 0x2f, 0xce, 0x3f,
  0x00, 0x00, 0x00, 0x00, 0x00, 0x00, 0x00, 0x00, 0x00, 0x00, 0x00, 0x00,
  0x00, 0x00, 0x00, 0x00, 0x00, 0x00, 0x00, 0x00, 0x00, 0x00, 0x00, 0x00,
  0x00, 0x00, 0x00, 0xa0, 0xdd, 0x77, 0x93, 0x3f, 0x00, 0x00, 0x00, 0x40,
  0x56, 0x01, 0xbf, 0xbf, 0x00, 0x00, 0x00, 0xe0, 0x7c, 0xd3, 0x88, 0xbf,
  0x00, 0x00, 0x00, 0x00, 0xbf, 0x06, 0xc4, 0x3f, 0x00, 0x00, 0x00, 0x20,
  0x73, 0x20, 0xa8, 0x3f, 0x00, 0x00, 0x00, 0x80, 0x49, 0x95, 0xcd, 0xbf,
  0x00, 0x00, 0x00, 0x20, 0xee, 0x52, 0xd3, 0xbf, 0x00, 0x00, 0x00, 0x40,
  0x42, 0x31, 0xd6, 0xbf, 0x00, 0x00, 0x00, 0x00, 0xea, 0x96, 0xc1, 0x3f,
  0x00, 0x00, 0x00, 0x00, 0x00, 0x00, 0x00, 0x00, 0x00, 0x00, 0x00, 0x00,
  0x00, 0x00, 0x00, 0x00, 0x00, 0x00, 0x00, 0x00, 0x00, 0x00, 0x00, 0x00,
  0x00, 0x00, 0x00, 0xc0, 0x70, 0x44, 0xab, 0xbf, 0x00, 0x00, 0x00, 0x20,
  0xdb, 0x26, 0xa0, 0x3f, 0x00, 0x00, 0x00, 0x80, 0x90, 0xdc, 0xbf, 0x3f,
  0x00, 0x00, 0x00, 0xc0, 0x34, 0x92, 0xa0, 0x3f, 0x00, 0x00, 0x00, 0x60,
  0xbd, 0x49, 0xb3, 0x3f, 0x00, 0x00, 0x00, 0xe0, 0xc4, 0xe3, 0xa0, 0xbf,
  0x00, 0x00, 0x00, 0x80, 0x61, 0x82, 0xd6, 0x3f, 0x00, 0x00, 0x00, 0x20,
  0x15, 0x53, 0xc0, 0x3f, 0x00, 0x00, 0x00, 0x60, 0xfd, 0x0d, 0xb1, 0x3f,
  0x00, 0x00, 0x00, 0x00, 0x00, 0x00, 0x00, 0x00, 0x00, 0x00, 0x00, 0x00,
  0x00, 0x00, 0x00, 0x00, 0x00, 0x00, 0x00, 0x00, 0x00, 0x00, 0x00, 0x00,
  0x00, 0x00, 0x00, 0x40, 0xfb, 0xe4, 0xc7, 0x3f, 0x00, 0x00, 0x00, 0x20,
  0xa9, 0xd3, 0xd8, 0x3f, 0x00, 0x00, 0x00, 0x20, 0x90, 0x67, 0x7d, 0x3f,
  0x00, 0x00, 0x00, 0x20, 0x5e, 0x82, 0xba, 0x3f, 0x00, 0x00, 0x00, 0x20,
  0xad, 0x67, 0xb2, 0x3f, 0x00, 0x00, 0x00, 0x60, 0x15, 0x7a, 0x82, 0x3f,
  0x00, 0x00, 0x00, 0xe0, 0xc8, 0xaf, 0xc0, 0xbf, 0x00, 0x00, 0x00, 0xe0,
  0x8a, 0x34, 0xcd, 0xbf, 0x00, 0x00, 0x00, 0xa0, 0xca, 0x4d, 0xb1, 0xbf,
  0x00, 0x00, 0x00, 0x00, 0x00, 0x00, 0x00, 0x00, 0x00, 0x00, 0x00, 0x00,
  0x00, 0x00, 0x00, 0x00, 0x00, 0x00, 0x00, 0x00, 0x00, 0x00, 0x00, 0x00,
  0x00, 0x00, 0x00, 0x40, 0xb6, 0xcf, 0xc3, 0x3f, 0x00, 0x00, 0x00, 0x40,
  0x4d, 0xe4, 0xaa, 0x3f, 0x00, 0x00, 0x00, 0x80, 0x36, 0x9f, 0x82, 0xbf,
  0x00, 0x00, 0x00, 0x80, 0x51, 0xc9, 0xc1, 0xbf, 0x00, 0x00, 0x00, 0x80,
  0x5e, 0x42, 0x91, 0xbf, 0x00, 0x00, 0x00, 0x20, 0x2d, 0x60, 0xcf, 0xbf,
  0x00, 0x00, 0x00, 0xa0, 0x7c, 0x35, 0xb9, 0xbf, 0x00, 0x00, 0x00, 0x20,
  0xca, 0xf6, 0xd0, 0x3f, 0x00, 0x00, 0x00, 0xe0, 0x89, 0x27, 0xa8, 0x3f,
  0x00, 0x00, 0x00, 0x00, 0x00, 0x00, 0x00, 0x00, 0x00, 0x00, 0x00, 0x00,
  0x00, 0x00, 0x00, 0x00, 0x00, 0x00, 0x00, 0x00, 0x00, 0x00, 0x00, 0x00,
  0x00, 0x00, 0x00, 0x20, 0x1e, 0x1b, 0xc5, 0x3f, 0x00, 0x00, 0x00, 0xe0,
  0xfa, 0x3e, 0xb3, 0xbf, 0x00, 0x00, 0x00, 0x60, 0x3e, 0x75, 0xbe, 0x3f,
  0x00, 0x00, 0x00, 0xe0, 0x1c, 0x4d, 0xa4, 0xbf, 0x00, 0x00, 0x00, 0xe0,
  0x2f, 0xa1, 0xd7, 0xbf, 0x00, 0x00, 0x00, 0x00, 0x14, 0x8f, 0xda, 0xbf,
  0x00, 0x00, 0x00, 0x80, 0x27, 0x38, 0x99, 0x3f, 0x00, 0x00, 0x00, 0xe0,
  0x2a, 0x20, 0xd8, 0x3f, 0x00, 0x00, 0x00, 0x40, 0x95, 0x95, 0x9f, 0x3f,
  0x00, 0x00, 0x00, 0x00, 0x00, 0x00, 0x00, 0x00, 0x00, 0x00, 0x00, 0x00,
  0x00, 0x00, 0x00, 0x00, 0x00, 0x00, 0x00, 0x00, 0x00, 0x00, 0x00, 0x00,
  0x00, 0x00, 0x00, 0x20, 0x03, 0xd4, 0xd2, 0xbf, 0x00, 0x00, 0x00, 0xe0,
  0x70, 0xfa, 0xdd, 0xbf, 0x00, 0x00, 0x00, 0x40, 0x5e, 0x1a, 0xe5, 0xbf,
  0x00, 0x00, 0x00, 0x20, 0x27, 0x94, 0xd3, 0xbf, 0x00, 0x00, 0x00, 0x80,
  0x7a, 0xfe, 0xa5, 0x3f, 0x00, 0x00, 0x00, 0x20, 0xd1, 0xed, 0xd9, 0x3f,
  0x00, 0x00, 0x00, 0xe0, 0xc5, 0x75, 0xd3, 0x3f, 0x00, 0x00, 0x00, 0x80,
  0xc5, 0xca, 0xbc, 0x3f, 0x00, 0x00, 0x00, 0xc0, 0xbf, 0xe3, 0xb2, 0x3f,
  0x00, 0x00, 0x00, 0x00, 0x00, 0x00, 0x00, 0x00, 0x00, 0x00, 0x00, 0x00,
  0x00, 0x00, 0x00, 0x00, 0x00, 0x00, 0x00, 0x00, 0x00, 0x00, 0x00, 0x00,
  0x00, 0x00, 0x00, 0x00, 0xf8, 0x9e, 0xa2, 0x3f, 0x00, 0x00, 0x00, 0xc0,
  0xdb, 0x6c, 0xb0, 0xbf, 0x00, 0x00, 0x00, 0xc0, 0x8e, 0x8f, 0xcb, 0xbf,
  0x00, 0x00, 0x00, 0x40, 0x5b, 0x57, 0xcd, 0xbf, 0x00, 0x00, 0x00, 0x80,
  0xdb, 0x20, 0xca, 0xbf, 0x00, 0x00, 0x00, 0x40, 0xb2, 0x6c, 0xa1, 0xbf,
  0x00, 0x00, 0x00, 0x60, 0x86, 0x21, 0xbc, 0x3f, 0x00, 0x00, 0x00, 0xa0,
  0x0e, 0xa2, 0xce, 0x3f, 0x00, 0x00, 0x00, 0x00, 0xaa, 0xaf, 0xac, 0x3f,
  0x00, 0x00, 0x00, 0x00, 0x00, 0x00, 0x00, 0x00, 0x00, 0x00, 0x00, 0x00,
  0x00, 0x00, 0x00, 0x00, 0x00, 0x00, 0x00, 0x00, 0x00, 0x00, 0x00, 0x00,
  0x00, 0x00, 0x00, 0x00, 0x6a, 0x18, 0xcd, 0xbf, 0x00, 0x00, 0x00, 0x00,
  0xff, 0x32, 0xcd, 0xbf, 0x00, 0x00, 0x00, 0x40, 0x44, 0x6c, 0xb0, 0xbf,
  0x00, 0x00, 0x00, 0x20, 0xc5, 0x53, 0xbc, 0xbf, 0x00, 0x00, 0x00, 0xa0,
  0x50, 0x4f, 0xb7, 0xbf, 0x00, 0x00, 0x00, 0x00, 0x12, 0xb1, 0xc2, 0xbf,
  0x00, 0x00, 0x00, 0xc0, 0x36, 0xfa, 0xbf, 0xbf, 0x00, 0x00, 0x00, 0x80,
  0x2d, 0xdd, 0xb1, 0xbf, 0x00, 0x00, 0x00, 0xe0, 0x13, 0x02, 0xd1, 0xbf,
  0x00, 0x00, 0x00, 0x00, 0x00, 0x00, 0x00, 0x00, 0x00, 0x00, 0x00, 0x00,
  0x00, 0x00, 0x00, 0x00, 0x00, 0x00, 0x00, 0x00, 0x00, 0x00, 0x00, 0x00,
  0x00, 0x00, 0x00, 0xa0, 0xe6, 0xb1, 0x9e, 0x3f, 0x00, 0x00, 0x00, 0x00,
  0x7a, 0xcc, 0xaf, 0x3f, 0x00, 0x00, 0x00, 0x40, 0xe9, 0x5d, 0xa4, 0x3f,
  0x00, 0x00, 0x00, 0x40, 0x92, 0x14, 0xa2, 0x3f, 0x00, 0x00, 0x00, 0x20,
  0x71, 0x4a, 0xd3, 0xbf, 0x00, 0x00, 0x00, 0xa0, 0xd4, 0x19, 0xc7, 0xbf,
  0x00, 0x00, 0x00, 0x00, 0x7d, 0x12, 0xa8, 0xbf, 0x00, 0x00, 0x00, 0xc0,
  0x88, 0xf4, 0xae, 0xbf, 0x00, 0x00, 0x00, 0xc0, 0x10, 0x81, 0xb9, 0xbf,
  0x00, 0x00, 0x00, 0x00, 0x00, 0x00, 0x00, 0x00, 0x00, 0x00, 0x00, 0x00,
  0x00, 0x00, 0x00, 0x00, 0x00, 0x00, 0x00, 0x00, 0x00, 0x00, 0x00, 0x00,
  0x00, 0x00, 0x00, 0xc0, 0x10, 0x63, 0xb7, 0xbf, 0x00, 0x00, 0x00, 0xe0,
  0x25, 0xd3, 0xa5, 0xbf, 0x00, 0x00, 0x00, 0x60, 0x7a, 0xf6, 0xb5, 0x3f,
  0x00, 0x00, 0x00, 0x80, 0xd2, 0x57, 0xb0, 0x3f, 0x00, 0x00, 0x00, 0x20,
  0xe6, 0x6b, 0x99, 0x3f, 0x00, 0x00, 0x00, 0x40, 0x21, 0x8e, 0xa6, 0x3f,
  0x00, 0x00, 0x00, 0xc0, 0x71, 0x99, 0xad, 0x3f, 0x00, 0x00, 0x00, 0xc0,
  0x7b, 0xb3, 0xc1, 0x3f, 0x00, 0x00, 0x00, 0xe0, 0xd3, 0xeb, 0xcd, 0x3f,
  0x00, 0x00, 0x00, 0x00, 0x00, 0x00, 0x00, 0x00, 0x00, 0x00, 0x00, 0x00,
  0x00, 0x00, 0x00, 0x00, 0x00, 0x00, 0x00, 0x00, 0x00, 0x00, 0x00, 0x00,
  0x00, 0x00, 0x00, 0x00, 0x34, 0xd0, 0x9f, 0x3f, 0x00, 0x00, 0x00, 0x80,
  0x8e, 0x19, 0xb1, 0x3f, 0x00, 0x00, 0x00, 0x00, 0xaf, 0x4a, 0xaf, 0xbf,
  0x00, 0x00, 0x00, 0x40, 0xa1, 0xfb, 0xa1, 0x3f, 0x00, 0x00, 0x00, 0x80,
  0x5b, 0xe0, 0xbc, 0x3f, 0x00, 0x00, 0x00, 0x40, 0x47, 0x5d, 0x9b, 0xbf,
  0x00, 0x00, 0x00, 0x60, 0x7d, 0x81, 0xbb, 0xbf, 0x00, 0x00, 0x00, 0x80,
  0x5e, 0xfd, 0xb7, 0xbf, 0x00, 0x00, 0x00, 0x40, 0xac, 0x76, 0xc8, 0xbf,
  0x00, 0x00, 0x00, 0x00, 0x00, 0x00, 0x00, 0x00, 0x00, 0x00, 0x00, 0x00,
  0x00, 0x00, 0x00, 0x00, 0x00, 0x00, 0x00, 0x00, 0x00, 0x00, 0x00, 0x00,
  0x00, 0x00, 0x00, 0x40, 0xe7, 0xb7, 0xb9, 0xbf, 0x00, 0x00, 0x00, 0x60,
  0xcc, 0x2f, 0xb7, 0xbf, 0x00, 0x00, 0x00, 0x00, 0xef, 0x80, 0x69, 0x3f,
  0x00, 0x00, 0x00, 0x60, 0x02, 0xbb, 0xb3, 0x3f, 0x00, 0x00, 0x00, 0x20,
  0xb2, 0x2b, 0x58, 0x3f, 0x00, 0x00, 0x00, 0x40, 0xc6, 0x84, 0xb8, 0x3f,
  0x00, 0x00, 0x00, 0x40, 0x06, 0x47, 0xb1, 0x3f, 0x00, 0x00, 0x00, 0x00,
  0xd9, 0xc6, 0xbc, 0x3f, 0x00, 0x00, 0x00, 0x00, 0xdc, 0x41, 0xa9, 0x3f,
  0x00, 0x00, 0x00, 0x00, 0x00, 0x00, 0x00, 0x00, 0x00, 0x00, 0x00, 0x00,
  0x00, 0x00, 0x00, 0x00, 0x00, 0x00, 0x00, 0x00, 0x00, 0x00, 0x00, 0x00,
  0x00, 0x00, 0x00, 0xe0, 0x95, 0x13, 0xc0, 0x3f, 0x00, 0x00, 0x00, 0x80,
  0xe1, 0x0a, 0xba, 0x3f, 0x00, 0x00, 0x00, 0x80, 0x5e, 0x38, 0xd4, 0x3f,
  0x00, 0x00, 0x00, 0xc0, 0x3f, 0xcb, 0xc4, 0x3f, 0x00, 0x00, 0x00, 0xa0,
  0x5f, 0x74, 0xc4, 0x3f, 0x00, 0x00, 0x00, 0xc0, 0x7f, 0x71, 0xa8, 0xbf,
  0x00, 0x00, 0x00, 0xc0, 0xd0, 0x4c, 0xa1, 0xbf, 0x00, 0x00, 0x00, 0xe0,
  0x4c, 0x98, 0xa8, 0xbf, 0x00, 0x00, 0x00, 0x40, 0xd1, 0x50, 0xc9, 0x3f,
  0x00, 0x00, 0x00, 0x00, 0x00, 0x00, 0x00, 0x00, 0x00, 0x00, 0x00, 0x00,
  0x00, 0x00, 0x00, 0x00, 0x00, 0x00, 0x00, 0x00, 0x00, 0x00, 0x00, 0x00,
  0x00, 0x00, 0x00, 0xa0, 0x99, 0xe9, 0x82, 0x3f, 0x00, 0x00, 0x00, 0xc0,
  0x35, 0x59, 0xb2, 0x3f, 0x00, 0x00, 0x00, 0x60, 0x85, 0xe4, 0x9c, 0x3f,
  0x00, 0x00, 0x00, 0x00, 0x10, 0x54, 0xbe, 0x3f, 0x00, 0x00, 0x00, 0xc0,
  0xa8, 0xaf, 0xb8, 0x3f, 0x00, 0x00, 0x00, 0x80, 0x7f, 0x27, 0xb4, 0xbf,
  0x00, 0x00, 0x00, 0xc0, 0x7d, 0x6b, 0xb2, 0xbf, 0x00, 0x00, 0x00, 0xe0,
  0x6d, 0xce, 0xad, 0xbf, 0x00, 0x00, 0x00, 0xa0, 0x4e, 0x25, 0x84, 0x3f,
  0x00, 0x00, 0x00, 0x00, 0x00, 0x00, 0x00, 0x00, 0x00, 0x00, 0x00, 0x00,
  0x00, 0x00, 0x00, 0x00, 0x00, 0x00, 0x00, 0x00, 0x00, 0x00, 0x00, 0x00
};

#endif
