#ifndef __ECG_SEG_WEIGHT_H__
#define __ECG_SEG_WEIGHT_H__

static unsigned char unet_encoder0_conv1d_block_0_conv_weight0[48] __attribute__((aligned(4))) = {
  0xf4, 0x03, 0x82, 0xc0, 0x4a, 0x56, 0xf0, 0x40, 0xd4, 0xa6, 0xfa, 0x40,
  0x28, 0x91, 0x0a, 0x41, 0x21, 0x69, 0xe6, 0xbf, 0x57, 0x82, 0x8b, 0xbd,
  0xaf, 0x28, 0x25, 0xc1, 0x06, 0x9a, 0x98, 0x3f, 0x2c, 0xe0, 0x0b, 0xc1
};

static unsigned char unet_encoder0_conv1d_block_0_conv_weight1[48] __attribute__((aligned(4))) = {
  0xd5, 0x3f, 0x1e, 0xc1, 0x4d, 0xe0, 0xa1, 0xbf, 0xdf, 0xcb, 0x54, 0x3f,
  0x8e, 0xf8, 0x1b, 0x40, 0x1e, 0xeb, 0xc6, 0x40, 0x93, 0xfd, 0xcc, 0x3f,
  0x92, 0x87, 0x32, 0xbf, 0xfb, 0xfe, 0x6f, 0xc0, 0x34, 0x96, 0xbe, 0x40
};

static unsigned char unet_encoder0_conv1d_block_0_conv_weight2[48] __attribute__((aligned(4))) = {
  0x5d, 0xd8, 0xd6, 0xc0, 0x75, 0x96, 0xdb, 0xc0, 0x56, 0xdf, 0xc2, 0xbf,
  0xd5, 0xf3, 0x9f, 0xc0, 0x15, 0x72, 0xf5, 0x40, 0xb8, 0x6f, 0xbf, 0x3e,
  0x84, 0x81, 0xc8, 0x40, 0xdc, 0x7b, 0x78, 0x3e, 0x31, 0xcd, 0xa7, 0x40
};

static unsigned char unet_encoder0_conv1d_block_0_conv_weight3[48] __attribute__((aligned(4))) = {
  0x37, 0xdd, 0x5d, 0x40, 0xb2, 0xc6, 0x84, 0x40, 0xf1, 0xfb, 0x45, 0x3f,
  0x4d, 0xa7, 0xa1, 0x40, 0xd7, 0xaa, 0xd1, 0xc0, 0x28, 0xfe, 0x65, 0xbf,
  0x84, 0x10, 0xc0, 0xc0, 0x29, 0x69, 0x4a, 0xc0, 0xc3, 0x86, 0xec, 0x3f
};

static unsigned char unet_encoder0_conv1d_block_0_conv_bias[16] __attribute__((aligned(4))) = {
  0xdd, 0x5e, 0x57, 0x3d, 0x1d, 0x80, 0x38, 0x3d, 0x97, 0x11, 0x77, 0x3d,
  0x4b, 0xeb, 0x6d, 0xbc
};

static unsigned char unet_encoder0_conv1d_block_1_conv_weight0_0[48] __attribute__((aligned(4))) = {
  0x7f, 0xe6, 0x5e, 0xbd, 0x1f, 0xbf, 0x99, 0xbc, 0xbf, 0x35, 0x84, 0xbd,
  0x78, 0x37, 0x1b, 0xbe, 0x90, 0xf8, 0x41, 0xbe, 0x84, 0x4c, 0xb4, 0xbd,
  0xe6, 0x88, 0x79, 0xbe, 0x4a, 0xf3, 0x0c, 0xbe, 0xcc, 0x78, 0xf3, 0xbc
};

static unsigned char unet_encoder0_conv1d_block_1_conv_weight0_1[48] __attribute__((aligned(4))) = {
  0x3f, 0x3d, 0xf4, 0x3c, 0xfe, 0x9e, 0xab, 0x3c, 0x5b, 0xe4, 0x7c, 0xbd,
  0x7c, 0xdc, 0x92, 0xbc, 0xf1, 0x90, 0x94, 0xbd, 0x32, 0xf5, 0xf9, 0x3c,
  0xb9, 0x4f, 0xa6, 0x3d, 0x26, 0x2a, 0x17, 0x3d, 0x68, 0xa8, 0x00, 0x3e
};

static unsigned char unet_encoder0_conv1d_block_1_conv_weight0_2[48] __attribute__((aligned(4))) = {
  0x4a, 0x3a, 0xed, 0x3c, 0x6d, 0x3a, 0xad, 0x3b, 0x4c, 0xdb, 0x16, 0x3e,
  0xc5, 0xf1, 0xac, 0x3c, 0xf1, 0xe4, 0x12, 0x3e, 0x6a, 0xb4, 0x27, 0x3e,
  0x60, 0x73, 0xc4, 0x3d, 0x22, 0xb9, 0x7d, 0x3d, 0x53, 0x4f, 0x06, 0x3d
};

static unsigned char unet_encoder0_conv1d_block_1_conv_weight0_3[48] __attribute__((aligned(4))) = {
  0xc4, 0xed, 0x23, 0x3e, 0x3e, 0xfe, 0x30, 0x3d, 0x5c, 0x30, 0x75, 0x3d,
  0x4e, 0xa0, 0x85, 0xbd, 0x83, 0xb3, 0x1a, 0xbe, 0xb1, 0xfd, 0xd9, 0xbd,
  0xab, 0x1c, 0x4b, 0xbd, 0x0a, 0x8c, 0x07, 0x3c, 0x26, 0x52, 0x83, 0xbd
};

static unsigned char unet_encoder0_conv1d_block_1_conv_weight1_0[48] __attribute__((aligned(4))) = {
  0x7b, 0x2a, 0x3f, 0x3d, 0x8e, 0x1d, 0x1e, 0x3e, 0xc7, 0x29, 0x8b, 0x3d,
  0x1d, 0xad, 0xf8, 0x3d, 0xde, 0xa3, 0x13, 0x3d, 0xdf, 0xc3, 0x9e, 0xbd,
  0x92, 0x36, 0x55, 0xbc, 0x7b, 0xdf, 0xb7, 0x3c, 0x90, 0xd3, 0xee, 0xbd
};

static unsigned char unet_encoder0_conv1d_block_1_conv_weight1_1[48] __attribute__((aligned(4))) = {
  0x44, 0xb4, 0xc6, 0xbd, 0xb8, 0x3e, 0x9e, 0xbc, 0xf6, 0xd3, 0xee, 0x3c,
  0x38, 0xc4, 0x7e, 0xbd, 0x6f, 0x37, 0xee, 0xbd, 0xa0, 0xb1, 0x88, 0xbc,
  0xa3, 0x89, 0x7f, 0x3d, 0x46, 0x7c, 0xcb, 0xbd, 0x18, 0x9c, 0x57, 0x3d
};

static unsigned char unet_encoder0_conv1d_block_1_conv_weight1_2[48] __attribute__((aligned(4))) = {
  0x0c, 0xa9, 0x90, 0xbd, 0x52, 0x04, 0xd1, 0xbd, 0xdf, 0xc9, 0x0a, 0xbe,
  0xdb, 0xbe, 0xcf, 0xbd, 0x3c, 0xf6, 0x84, 0xbe, 0x70, 0xca, 0x97, 0xbe,
  0x35, 0xd5, 0x5b, 0xbe, 0x96, 0xe4, 0xc3, 0xbd, 0x38, 0x42, 0xbe, 0x3d
};

static unsigned char unet_encoder0_conv1d_block_1_conv_weight1_3[48] __attribute__((aligned(4))) = {
  0xb5, 0x58, 0x64, 0x3d, 0x10, 0x1b, 0x35, 0xbd, 0x46, 0x6e, 0x0a, 0x3d,
  0xa2, 0xe5, 0x90, 0xbd, 0xb5, 0xf8, 0xa2, 0x3c, 0xbc, 0x63, 0xcc, 0x3d,
  0x7f, 0xa9, 0x78, 0x3d, 0x45, 0x2e, 0xb8, 0xbc, 0x40, 0xf9, 0x9f, 0x3d
};

static unsigned char unet_encoder0_conv1d_block_1_conv_weight2_0[48] __attribute__((aligned(4))) = {
  0x46, 0x6a, 0x36, 0xbd, 0xd3, 0xd5, 0x31, 0x3c, 0xa5, 0xc4, 0x9a, 0xbe,
  0x2a, 0xdf, 0xef, 0xbd, 0xb2, 0xac, 0x8c, 0x3d, 0x9a, 0x22, 0x36, 0x3d,
  0x4a, 0xc4, 0x0f, 0x3e, 0xd9, 0xcd, 0x25, 0x3e, 0x51, 0x45, 0xaa, 0xbc
};

static unsigned char unet_encoder0_conv1d_block_1_conv_weight2_1[48] __attribute__((aligned(4))) = {
  0xb5, 0x3f, 0x93, 0x3d, 0xa3, 0x1d, 0xde, 0xbb, 0x54, 0x16, 0x3f, 0x3e,
  0x99, 0xe8, 0x51, 0x3e, 0xf2, 0xf9, 0x9b, 0x3d, 0x9f, 0x6c, 0x99, 0x3d,
  0x4b, 0xce, 0x19, 0x3d, 0x6c, 0x0b, 0x13, 0x3e, 0x70, 0x5c, 0xb9, 0xbc
};

static unsigned char unet_encoder0_conv1d_block_1_conv_weight2_2[48] __attribute__((aligned(4))) = {
  0x6a, 0xdc, 0xb3, 0xbc, 0x4f, 0x6e, 0xae, 0xba, 0x69, 0x2c, 0x0f, 0x3e,
  0x3b, 0x19, 0xe6, 0xbd, 0x16, 0xc1, 0x40, 0x3d, 0xc4, 0xbc, 0x60, 0xbe,
  0x54, 0x01, 0x8f, 0x3d, 0x24, 0xef, 0xc1, 0xbc, 0x7d, 0x92, 0x93, 0xbd
};

static unsigned char unet_encoder0_conv1d_block_1_conv_weight2_3[48] __attribute__((aligned(4))) = {
  0xc8, 0x4e, 0xb4, 0x3c, 0xb3, 0xf1, 0xc6, 0x3d, 0x83, 0xb2, 0x44, 0xbd,
  0xa6, 0x6d, 0x07, 0xbe, 0xbd, 0x68, 0x33, 0xbe, 0xb3, 0x6e, 0x03, 0xbe,
  0x22, 0x27, 0xd9, 0xbd, 0x4f, 0x3b, 0xdb, 0x3d, 0xc9, 0xe0, 0x42, 0x3d
};

static unsigned char unet_encoder0_conv1d_block_1_conv_weight3_0[48] __attribute__((aligned(4))) = {
  0xf2, 0x48, 0x49, 0xbe, 0x69, 0xab, 0x67, 0xbc, 0xaf, 0x8b, 0xd5, 0xbd,
  0x80, 0xe9, 0xde, 0x3c, 0x64, 0xfb, 0x5d, 0xbe, 0x43, 0x5d, 0x5a, 0xbe,
  0xa9, 0xe4, 0x9e, 0xbd, 0x3f, 0xe9, 0x19, 0xbe, 0xc2, 0xac, 0x58, 0xbe
};

static unsigned char unet_encoder0_conv1d_block_1_conv_weight3_1[48] __attribute__((aligned(4))) = {
  0x7f, 0xfe, 0x81, 0xba, 0xdc, 0xf6, 0xf5, 0xbd, 0xbd, 0xa7, 0xb2, 0xbc,
  0xde, 0xce, 0x14, 0x3e, 0xc7, 0x85, 0x57, 0xbc, 0xd2, 0x42, 0x89, 0xbc,
  0x46, 0xb4, 0xbe, 0xbc, 0x20, 0xd5, 0xa6, 0xbb, 0x57, 0xde, 0x18, 0xbe
};

static unsigned char unet_encoder0_conv1d_block_1_conv_weight3_2[48] __attribute__((aligned(4))) = {
  0x5c, 0x69, 0xb4, 0x3d, 0x28, 0x10, 0xc9, 0x3d, 0xbd, 0xb5, 0x14, 0x3d,
  0xdd, 0xc9, 0x45, 0xbd, 0x7f, 0x14, 0x02, 0xbe, 0x5a, 0x77, 0x0b, 0xbe,
  0x7b, 0x2c, 0x04, 0xbf, 0xc0, 0x75, 0x72, 0xbe, 0x83, 0xcc, 0x8d, 0xbd
};

static unsigned char unet_encoder0_conv1d_block_1_conv_weight3_3[48] __attribute__((aligned(4))) = {
  0x6a, 0x38, 0x8f, 0x3d, 0x7c, 0x93, 0x24, 0x3e, 0x5e, 0xb2, 0x06, 0xbc,
  0xc7, 0xdb, 0xbf, 0x3d, 0x40, 0x65, 0x89, 0xbd, 0xac, 0x85, 0xbe, 0xbc,
  0x3f, 0x10, 0xac, 0xbd, 0x08, 0x54, 0xdc, 0xbc, 0xb9, 0xcc, 0x57, 0x3d
};

static unsigned char unet_encoder0_conv1d_block_1_conv_bias[16] __attribute__((aligned(4))) = {
  0xf5, 0x90, 0xa7, 0x3e, 0xf8, 0x5f, 0x34, 0x3f, 0xe4, 0x3e, 0x8d, 0x3e,
  0xfd, 0x2a, 0x42, 0x3f
};


#endif
