#ifndef __ECG_SEG_WEIGHT_H__
#define __ECG_SEG_WEIGHT_H__

static unsigned char unet_encoder1_conv1d_block_1_conv_weight0[48] __attribute__((aligned(4))) = {
  0xf4, 0x03, 0x82, 0xc0, 0x4a, 0x56, 0xf0, 0x40, 0xd4, 0xa6, 0xfa, 0x40,
  0x28, 0x91, 0x0a, 0x41, 0x21, 0x69, 0xe6, 0xbf, 0x57, 0x82, 0x8b, 0xbd,
  0xaf, 0x28, 0x25, 0xc1, 0x06, 0x9a, 0x98, 0x3f, 0x2c, 0xe0, 0x0b, 0xc1
};

static unsigned char unet_encoder1_conv1d_block_1_conv_weight1[48] __attribute__((aligned(4))) = {
  0xd5, 0x3f, 0x1e, 0xc1, 0x4d, 0xe0, 0xa1, 0xbf, 0xdf, 0xcb, 0x54, 0x3f,
  0x8e, 0xf8, 0x1b, 0x40, 0x1e, 0xeb, 0xc6, 0x40, 0x93, 0xfd, 0xcc, 0x3f,
  0x92, 0x87, 0x32, 0xbf, 0xfb, 0xfe, 0x6f, 0xc0, 0x34, 0x96, 0xbe, 0x40
};

static unsigned char unet_encoder1_conv1d_block_1_conv_weight2[48] __attribute__((aligned(4))) = {
  0x5d, 0xd8, 0xd6, 0xc0, 0x75, 0x96, 0xdb, 0xc0, 0x56, 0xdf, 0xc2, 0xbf,
  0xd5, 0xf3, 0x9f, 0xc0, 0x15, 0x72, 0xf5, 0x40, 0xb8, 0x6f, 0xbf, 0x3e,
  0x84, 0x81, 0xc8, 0x40, 0xdc, 0x7b, 0x78, 0x3e, 0x31, 0xcd, 0xa7, 0x40
};

static unsigned char unet_encoder1_conv1d_block_1_conv_weight3[48] __attribute__((aligned(4))) = {
  0x37, 0xdd, 0x5d, 0x40, 0xb2, 0xc6, 0x84, 0x40, 0xf1, 0xfb, 0x45, 0x3f,
  0x4d, 0xa7, 0xa1, 0x40, 0xd7, 0xaa, 0xd1, 0xc0, 0x28, 0xfe, 0x65, 0xbf,
  0x84, 0x10, 0xc0, 0xc0, 0x29, 0x69, 0x4a, 0xc0, 0xc3, 0x86, 0xec, 0x3f
};

static unsigned char unet_encoder1_conv1d_block_1_conv_bias[16] __attribute__((aligned(4))) = {
  0xdd, 0x5e, 0x57, 0x3d, 0x1d, 0x80, 0x38, 0x3d, 0x97, 0x11, 0x77, 0x3d,
  0x4b, 0xeb, 0x6d, 0xbc
};




#endif
