#ifndef __ECG_SEG_WEIGHT_H__
#define __ECG_SEG_WEIGHT_H__

static unsigned char unet_encoder0_conv1d_block_0_conv_weight0[48] __attribute__((aligned(4))) = {
  0xf4, 0x03, 0x82, 0xc0, 0x4a, 0x56, 0xf0, 0x40, 0xd4, 0xa6, 0xfa, 0x40,
  0x28, 0x91, 0x0a, 0x41, 0x21, 0x69, 0xe6, 0xbf, 0x57, 0x82, 0x8b, 0xbd,
  0xaf, 0x28, 0x25, 0xc1, 0x06, 0x9a, 0x98, 0x3f, 0x2c, 0xe0, 0x0b, 0xc1
};
static unsigned char unet_encoder0_conv1d_block_0_conv_weight1[48] __attribute__((aligned(4))) = {
  0xd5, 0x3f, 0x1e, 0xc1, 0x4d, 0xe0, 0xa1, 0xbf, 0xdf, 0xcb, 0x54, 0x3f,
  0x8e, 0xf8, 0x1b, 0x40, 0x1e, 0xeb, 0xc6, 0x40, 0x93, 0xfd, 0xcc, 0x3f,
  0x92, 0x87, 0x32, 0xbf, 0xfb, 0xfe, 0x6f, 0xc0, 0x34, 0x96, 0xbe, 0x40
};
static unsigned char unet_encoder0_conv1d_block_0_conv_weight2[48] __attribute__((aligned(4))) = {
  0x5d, 0xd8, 0xd6, 0xc0, 0x75, 0x96, 0xdb, 0xc0, 0x56, 0xdf, 0xc2, 0xbf,
  0xd5, 0xf3, 0x9f, 0xc0, 0x15, 0x72, 0xf5, 0x40, 0xb8, 0x6f, 0xbf, 0x3e,
  0x84, 0x81, 0xc8, 0x40, 0xdc, 0x7b, 0x78, 0x3e, 0x31, 0xcd, 0xa7, 0x40
};
static unsigned char unet_encoder0_conv1d_block_0_conv_weight3[48] __attribute__((aligned(4))) = {
  0x37, 0xdd, 0x5d, 0x40, 0xb2, 0xc6, 0x84, 0x40, 0xf1, 0xfb, 0x45, 0x3f,
  0x4d, 0xa7, 0xa1, 0x40, 0xd7, 0xaa, 0xd1, 0xc0, 0x28, 0xfe, 0x65, 0xbf,
  0x84, 0x10, 0xc0, 0xc0, 0x29, 0x69, 0x4a, 0xc0, 0xc3, 0x86, 0xec, 0x3f
};
static unsigned char unet_encoder0_conv1d_block_0_conv_bias[16] __attribute__((aligned(4))) = {
  0xdd, 0x5e, 0x57, 0x3d, 0x1d, 0x80, 0x38, 0x3d, 0x97, 0x11, 0x77, 0x3d,
  0x4b, 0xeb, 0x6d, 0xbc
};
static unsigned char unet_encoder0_conv1d_block_1_conv_weight0_0[48] __attribute__((aligned(4))) = {
  0x7f, 0xe6, 0x5e, 0xbd, 0x1f, 0xbf, 0x99, 0xbc, 0xbf, 0x35, 0x84, 0xbd,
  0x78, 0x37, 0x1b, 0xbe, 0x90, 0xf8, 0x41, 0xbe, 0x84, 0x4c, 0xb4, 0xbd,
  0xe6, 0x88, 0x79, 0xbe, 0x4a, 0xf3, 0x0c, 0xbe, 0xcc, 0x78, 0xf3, 0xbc
};
static unsigned char unet_encoder0_conv1d_block_1_conv_weight0_1[48] __attribute__((aligned(4))) = {
  0x3f, 0x3d, 0xf4, 0x3c, 0xfe, 0x9e, 0xab, 0x3c, 0x5b, 0xe4, 0x7c, 0xbd,
  0x7c, 0xdc, 0x92, 0xbc, 0xf1, 0x90, 0x94, 0xbd, 0x32, 0xf5, 0xf9, 0x3c,
  0xb9, 0x4f, 0xa6, 0x3d, 0x26, 0x2a, 0x17, 0x3d, 0x68, 0xa8, 0x00, 0x3e
};
static unsigned char unet_encoder0_conv1d_block_1_conv_weight0_2[48] __attribute__((aligned(4))) = {
  0x4a, 0x3a, 0xed, 0x3c, 0x6d, 0x3a, 0xad, 0x3b, 0x4c, 0xdb, 0x16, 0x3e,
  0xc5, 0xf1, 0xac, 0x3c, 0xf1, 0xe4, 0x12, 0x3e, 0x6a, 0xb4, 0x27, 0x3e,
  0x60, 0x73, 0xc4, 0x3d, 0x22, 0xb9, 0x7d, 0x3d, 0x53, 0x4f, 0x06, 0x3d
};
static unsigned char unet_encoder0_conv1d_block_1_conv_weight0_3[48] __attribute__((aligned(4))) = {
  0xc4, 0xed, 0x23, 0x3e, 0x3e, 0xfe, 0x30, 0x3d, 0x5c, 0x30, 0x75, 0x3d,
  0x4e, 0xa0, 0x85, 0xbd, 0x83, 0xb3, 0x1a, 0xbe, 0xb1, 0xfd, 0xd9, 0xbd,
  0xab, 0x1c, 0x4b, 0xbd, 0x0a, 0x8c, 0x07, 0x3c, 0x26, 0x52, 0x83, 0xbd
};
static unsigned char unet_encoder0_conv1d_block_1_conv_weight1_0[48] __attribute__((aligned(4))) = {
  0x7b, 0x2a, 0x3f, 0x3d, 0x8e, 0x1d, 0x1e, 0x3e, 0xc7, 0x29, 0x8b, 0x3d,
  0x1d, 0xad, 0xf8, 0x3d, 0xde, 0xa3, 0x13, 0x3d, 0xdf, 0xc3, 0x9e, 0xbd,
  0x92, 0x36, 0x55, 0xbc, 0x7b, 0xdf, 0xb7, 0x3c, 0x90, 0xd3, 0xee, 0xbd
};
static unsigned char unet_encoder0_conv1d_block_1_conv_weight1_1[48] __attribute__((aligned(4))) = {
  0x44, 0xb4, 0xc6, 0xbd, 0xb8, 0x3e, 0x9e, 0xbc, 0xf6, 0xd3, 0xee, 0x3c,
  0x38, 0xc4, 0x7e, 0xbd, 0x6f, 0x37, 0xee, 0xbd, 0xa0, 0xb1, 0x88, 0xbc,
  0xa3, 0x89, 0x7f, 0x3d, 0x46, 0x7c, 0xcb, 0xbd, 0x18, 0x9c, 0x57, 0x3d
};
static unsigned char unet_encoder0_conv1d_block_1_conv_weight1_2[48] __attribute__((aligned(4))) = {
  0x0c, 0xa9, 0x90, 0xbd, 0x52, 0x04, 0xd1, 0xbd, 0xdf, 0xc9, 0x0a, 0xbe,
  0xdb, 0xbe, 0xcf, 0xbd, 0x3c, 0xf6, 0x84, 0xbe, 0x70, 0xca, 0x97, 0xbe,
  0x35, 0xd5, 0x5b, 0xbe, 0x96, 0xe4, 0xc3, 0xbd, 0x38, 0x42, 0xbe, 0x3d
};
static unsigned char unet_encoder0_conv1d_block_1_conv_weight1_3[48] __attribute__((aligned(4))) = {
  0xb5, 0x58, 0x64, 0x3d, 0x10, 0x1b, 0x35, 0xbd, 0x46, 0x6e, 0x0a, 0x3d,
  0xa2, 0xe5, 0x90, 0xbd, 0xb5, 0xf8, 0xa2, 0x3c, 0xbc, 0x63, 0xcc, 0x3d,
  0x7f, 0xa9, 0x78, 0x3d, 0x45, 0x2e, 0xb8, 0xbc, 0x40, 0xf9, 0x9f, 0x3d
};
static unsigned char unet_encoder0_conv1d_block_1_conv_weight2_0[48] __attribute__((aligned(4))) = {
  0x46, 0x6a, 0x36, 0xbd, 0xd3, 0xd5, 0x31, 0x3c, 0xa5, 0xc4, 0x9a, 0xbe,
  0x2a, 0xdf, 0xef, 0xbd, 0xb2, 0xac, 0x8c, 0x3d, 0x9a, 0x22, 0x36, 0x3d,
  0x4a, 0xc4, 0x0f, 0x3e, 0xd9, 0xcd, 0x25, 0x3e, 0x51, 0x45, 0xaa, 0xbc
};
static unsigned char unet_encoder0_conv1d_block_1_conv_weight2_1[48] __attribute__((aligned(4))) = {
  0xb5, 0x3f, 0x93, 0x3d, 0xa3, 0x1d, 0xde, 0xbb, 0x54, 0x16, 0x3f, 0x3e,
  0x99, 0xe8, 0x51, 0x3e, 0xf2, 0xf9, 0x9b, 0x3d, 0x9f, 0x6c, 0x99, 0x3d,
  0x4b, 0xce, 0x19, 0x3d, 0x6c, 0x0b, 0x13, 0x3e, 0x70, 0x5c, 0xb9, 0xbc
};
static unsigned char unet_encoder0_conv1d_block_1_conv_weight2_2[48] __attribute__((aligned(4))) = {
  0x6a, 0xdc, 0xb3, 0xbc, 0x4f, 0x6e, 0xae, 0xba, 0x69, 0x2c, 0x0f, 0x3e,
  0x3b, 0x19, 0xe6, 0xbd, 0x16, 0xc1, 0x40, 0x3d, 0xc4, 0xbc, 0x60, 0xbe,
  0x54, 0x01, 0x8f, 0x3d, 0x24, 0xef, 0xc1, 0xbc, 0x7d, 0x92, 0x93, 0xbd
};
static unsigned char unet_encoder0_conv1d_block_1_conv_weight2_3[48] __attribute__((aligned(4))) = {
  0xc8, 0x4e, 0xb4, 0x3c, 0xb3, 0xf1, 0xc6, 0x3d, 0x83, 0xb2, 0x44, 0xbd,
  0xa6, 0x6d, 0x07, 0xbe, 0xbd, 0x68, 0x33, 0xbe, 0xb3, 0x6e, 0x03, 0xbe,
  0x22, 0x27, 0xd9, 0xbd, 0x4f, 0x3b, 0xdb, 0x3d, 0xc9, 0xe0, 0x42, 0x3d
};
static unsigned char unet_encoder0_conv1d_block_1_conv_weight3_0[48] __attribute__((aligned(4))) = {
  0xf2, 0x48, 0x49, 0xbe, 0x69, 0xab, 0x67, 0xbc, 0xaf, 0x8b, 0xd5, 0xbd,
  0x80, 0xe9, 0xde, 0x3c, 0x64, 0xfb, 0x5d, 0xbe, 0x43, 0x5d, 0x5a, 0xbe,
  0xa9, 0xe4, 0x9e, 0xbd, 0x3f, 0xe9, 0x19, 0xbe, 0xc2, 0xac, 0x58, 0xbe
};
static unsigned char unet_encoder0_conv1d_block_1_conv_weight3_1[48] __attribute__((aligned(4))) = {
  0x7f, 0xfe, 0x81, 0xba, 0xdc, 0xf6, 0xf5, 0xbd, 0xbd, 0xa7, 0xb2, 0xbc,
  0xde, 0xce, 0x14, 0x3e, 0xc7, 0x85, 0x57, 0xbc, 0xd2, 0x42, 0x89, 0xbc,
  0x46, 0xb4, 0xbe, 0xbc, 0x20, 0xd5, 0xa6, 0xbb, 0x57, 0xde, 0x18, 0xbe
};
static unsigned char unet_encoder0_conv1d_block_1_conv_weight3_2[48] __attribute__((aligned(4))) = {
  0x5c, 0x69, 0xb4, 0x3d, 0x28, 0x10, 0xc9, 0x3d, 0xbd, 0xb5, 0x14, 0x3d,
  0xdd, 0xc9, 0x45, 0xbd, 0x7f, 0x14, 0x02, 0xbe, 0x5a, 0x77, 0x0b, 0xbe,
  0x7b, 0x2c, 0x04, 0xbf, 0xc0, 0x75, 0x72, 0xbe, 0x83, 0xcc, 0x8d, 0xbd
};
static unsigned char unet_encoder0_conv1d_block_1_conv_weight3_3[48] __attribute__((aligned(4))) = {
  0x6a, 0x38, 0x8f, 0x3d, 0x7c, 0x93, 0x24, 0x3e, 0x5e, 0xb2, 0x06, 0xbc,
  0xc7, 0xdb, 0xbf, 0x3d, 0x40, 0x65, 0x89, 0xbd, 0xac, 0x85, 0xbe, 0xbc,
  0x3f, 0x10, 0xac, 0xbd, 0x08, 0x54, 0xdc, 0xbc, 0xb9, 0xcc, 0x57, 0x3d
};
static unsigned char unet_encoder0_conv1d_block_1_conv_bias[16] __attribute__((aligned(4))) = {
  0xf5, 0x90, 0xa7, 0x3e, 0xf8, 0x5f, 0x34, 0x3f, 0xe4, 0x3e, 0x8d, 0x3e,
  0xfd, 0x2a, 0x42, 0x3f
};
static unsigned char unet_encoder1_conv1d_block_0_conv1d_weight[1536] __attribute__((aligned(4))) = {
  0x10, 0xb1, 0x94, 0xbd, 0xcc, 0xcf, 0x01, 0xbc, 0x28, 0x69, 0xe9, 0xbd, 0xc4, 0x5e, 0x1f, 0x3e, 0x53, 0x51, 0xed, 0xbc, 0x89, 0x40, 0x09, 0xbe, 0xf7, 0x3d, 0x8b, 0xbe, 0xef, 0xe3, 0x39, 0xbe,
  0xeb, 0xa4, 0x52, 0xbd, 0x00, 0x00, 0x00, 0x00, 0x00, 0x00, 0x00, 0x00, 0x00, 0x00, 0x00, 0x00, 0x76, 0x3f, 0x90, 0xbe, 0xe4, 0x8c, 0x89, 0xbe, 0xdd, 0xb0, 0x77, 0xbd, 0xa4, 0x41, 0xd9, 0x3d,
  0xde, 0x9d, 0x5c, 0x3e, 0x22, 0x9e, 0x9e, 0x3e, 0x3b, 0x23, 0x36, 0x3e, 0x2f, 0xf9, 0x51, 0x3e, 0xce, 0x95, 0xf4, 0x3e, 0x00, 0x00, 0x00, 0x00, 0x00, 0x00, 0x00, 0x00, 0x00, 0x00, 0x00, 0x00,
  0xbe, 0xe8, 0x66, 0x3e, 0x48, 0xc4, 0x5b, 0xbd, 0xe4, 0x45, 0x4b, 0x3e, 0xca, 0xd5, 0xd5, 0xbd, 0x96, 0x22, 0xb3, 0x3d, 0x8f, 0xfb, 0xd9, 0x3d, 0x4a, 0xf0, 0x32, 0xbe, 0xbc, 0xff, 0x16, 0xbb,
  0xf0, 0x96, 0x90, 0xbe, 0x00, 0x00, 0x00, 0x00, 0x00, 0x00, 0x00, 0x00, 0x00, 0x00, 0x00, 0x00, 0x9d, 0x6b, 0x4d, 0xbe, 0xfa, 0xc8, 0x40, 0xbe, 0x78, 0x17, 0x72, 0xbe, 0xb0, 0x31, 0xb3, 0xbd,
  0x5c, 0x7e, 0x66, 0xbe, 0x7e, 0x47, 0x6f, 0xbd, 0xa8, 0x4e, 0x80, 0xbd, 0xc4, 0x13, 0x9e, 0x3d, 0xc9, 0x18, 0x42, 0x3c, 0x00, 0x00, 0x00, 0x00, 0x00, 0x00, 0x00, 0x00, 0x00, 0x00, 0x00, 0x00,
  0xb1, 0x35, 0x7c, 0xbe, 0xa8, 0xc2, 0xc4, 0xbe, 0x87, 0x27, 0x8d, 0xbe, 0x97, 0xb1, 0x03, 0xbf, 0x84, 0x61, 0xb9, 0x3d, 0x23, 0x62, 0x90, 0x3e, 0x32, 0x5c, 0xc7, 0x3d, 0xbf, 0xa9, 0x51, 0x3e,
  0x9a, 0x71, 0x18, 0x3d, 0x00, 0x00, 0x00, 0x00, 0x00, 0x00, 0x00, 0x00, 0x00, 0x00, 0x00, 0x00, 0x72, 0x31, 0xe8, 0x3d, 0x5f, 0xa3, 0xaf, 0xbe, 0x6f, 0x2d, 0xfe, 0xbd, 0x06, 0x38, 0xea, 0xbe,
  0xad, 0xe4, 0x9a, 0xbe, 0x6d, 0x71, 0x5e, 0x3e, 0x12, 0xed, 0x48, 0x3e, 0x7c, 0x51, 0xa4, 0x3e, 0xcc, 0xcb, 0xa0, 0x3d, 0x00, 0x00, 0x00, 0x00, 0x00, 0x00, 0x00, 0x00, 0x00, 0x00, 0x00, 0x00,
  0x83, 0x4e, 0x65, 0x3e, 0xa8, 0xcd, 0x07, 0xbe, 0x96, 0x00, 0xa8, 0xbe, 0x72, 0xe3, 0x9e, 0xbd, 0xd3, 0x66, 0x2c, 0xbe, 0xa9, 0x8d, 0x8d, 0x3e, 0xf5, 0x92, 0xa4, 0x3d, 0x43, 0xae, 0x7e, 0x3d,
  0x52, 0xe9, 0xcc, 0xbb, 0x00, 0x00, 0x00, 0x00, 0x00, 0x00, 0x00, 0x00, 0x00, 0x00, 0x00, 0x00, 0xa6, 0xaa, 0xb9, 0xba, 0xde, 0x33, 0x13, 0x3e, 0x96, 0x09, 0x2f, 0x3e, 0x87, 0x2d, 0xb1, 0x3e,
  0xda, 0x76, 0xd5, 0x3d, 0x98, 0xec, 0x18, 0x3e, 0x37, 0xe0, 0xb7, 0xbd, 0x2c, 0x77, 0xaf, 0x3c, 0x68, 0x24, 0xb9, 0xbd, 0x00, 0x00, 0x00, 0x00, 0x00, 0x00, 0x00, 0x00, 0x00, 0x00, 0x00, 0x00,
  0x3e, 0xa4, 0x24, 0x3f, 0x52, 0xfb, 0x50, 0xbd, 0x0d, 0xe5, 0xbe, 0x3e, 0x85, 0x65, 0x86, 0xbf, 0xec, 0x91, 0x55, 0xbf, 0x3f, 0x3e, 0xe6, 0xbe, 0x9d, 0x60, 0x13, 0x3f, 0xf7, 0x0c, 0x03, 0x3f,
  0x4f, 0x42, 0xa9, 0xbe, 0x00, 0x00, 0x00, 0x00, 0x00, 0x00, 0x00, 0x00, 0x00, 0x00, 0x00, 0x00, 0xa1, 0x64, 0x75, 0x3e, 0xf7, 0x63, 0x36, 0xbe, 0x9c, 0x73, 0xf2, 0x3d, 0x72, 0x9b, 0x0b, 0xbf,
  0x5c, 0xaf, 0x19, 0x3e, 0x8c, 0x2a, 0xe8, 0x3e, 0x64, 0x68, 0x2f, 0x3d, 0xe1, 0x36, 0x05, 0x3f, 0xd5, 0x03, 0x9f, 0xbe, 0x00, 0x00, 0x00, 0x00, 0x00, 0x00, 0x00, 0x00, 0x00, 0x00, 0x00, 0x00,
  0x78, 0x58, 0x2a, 0xbf, 0x87, 0xf1, 0x52, 0x3d, 0x73, 0x6c, 0x27, 0x3e, 0xba, 0x88, 0x7f, 0xbd, 0xea, 0x09, 0xcf, 0xbd, 0x74, 0xcc, 0xe4, 0xbe, 0x54, 0x88, 0xc9, 0xbd, 0x55, 0x98, 0x58, 0xbd,
  0xe9, 0xb8, 0xc8, 0x3e, 0x00, 0x00, 0x00, 0x00, 0x00, 0x00, 0x00, 0x00, 0x00, 0x00, 0x00, 0x00, 0xae, 0xbd, 0x04, 0x3f, 0x6d, 0xe3, 0x9d, 0xbe, 0xf0, 0xd9, 0x75, 0x3e, 0x43, 0x2d, 0x34, 0xbe,
  0x57, 0x2e, 0x24, 0xbf, 0x85, 0xa1, 0x46, 0x3e, 0x7e, 0xc9, 0xbd, 0x3e, 0x7f, 0x86, 0xdb, 0x3e, 0xf9, 0x99, 0x26, 0xbf, 0x00, 0x00, 0x00, 0x00, 0x00, 0x00, 0x00, 0x00, 0x00, 0x00, 0x00, 0x00,
  0x4d, 0x1d, 0xe0, 0x3d, 0xd5, 0x02, 0xfb, 0x3d, 0x93, 0x6f, 0x84, 0x3e, 0x36, 0x9b, 0x66, 0x3e, 0x62, 0x55, 0x84, 0x3e, 0xf8, 0x48, 0x2d, 0xbe, 0x91, 0x06, 0xd9, 0x3d, 0x37, 0x9a, 0x9b, 0xbc,
  0x40, 0x62, 0xfb, 0x3d, 0x00, 0x00, 0x00, 0x00, 0x00, 0x00, 0x00, 0x00, 0x00, 0x00, 0x00, 0x00, 0x5c, 0x65, 0x4f, 0x3d, 0x63, 0x5e, 0xc5, 0xbd, 0xcd, 0xe3, 0xe4, 0xbe, 0xf7, 0x85, 0x04, 0xbf,
  0xeb, 0x69, 0xd5, 0x3d, 0x2d, 0x80, 0x1e, 0xbd, 0x60, 0x18, 0x0f, 0x3e, 0xe0, 0x35, 0x84, 0x3d, 0x9a, 0xbf, 0x96, 0xbe, 0x00, 0x00, 0x00, 0x00, 0x00, 0x00, 0x00, 0x00, 0x00, 0x00, 0x00, 0x00,
  0xfb, 0x92, 0xa1, 0xbe, 0x16, 0x55, 0x32, 0xbc, 0xcc, 0x7f, 0xad, 0xbd, 0x31, 0x0e, 0x98, 0x3e, 0x57, 0x02, 0xc4, 0x3c, 0x4d, 0xa3, 0x80, 0xbd, 0x9b, 0xf1, 0x59, 0xbe, 0x66, 0xdd, 0x75, 0xbd,
  0xfa, 0x62, 0x36, 0x3e, 0x00, 0x00, 0x00, 0x00, 0x00, 0x00, 0x00, 0x00, 0x00, 0x00, 0x00, 0x00, 0x46, 0x1a, 0xef, 0xbe, 0xf2, 0x9d, 0xe2, 0xbe, 0x98, 0x00, 0x16, 0xbe, 0xc1, 0xd1, 0x86, 0xbe,
  0xdf, 0x5f, 0x4f, 0x3e, 0x67, 0x11, 0x1e, 0x3e, 0x00, 0xe8, 0x87, 0x3e, 0xe4, 0xc3, 0x48, 0xbd, 0xdf, 0x0c, 0x83, 0xbd, 0x00, 0x00, 0x00, 0x00, 0x00, 0x00, 0x00, 0x00, 0x00, 0x00, 0x00, 0x00,
  0xee, 0x57, 0x04, 0xbe, 0x4c, 0x75, 0x93, 0xbe, 0xfe, 0xdd, 0xc6, 0xbe, 0x40, 0x16, 0x42, 0xbe, 0xb4, 0x19, 0xb0, 0xbd, 0x64, 0x97, 0x13, 0xbd, 0xc6, 0xb0, 0x89, 0x3c, 0xab, 0xb1, 0x1d, 0xbe,
  0x28, 0xf8, 0xb3, 0x3d, 0x00, 0x00, 0x00, 0x00, 0x00, 0x00, 0x00, 0x00, 0x00, 0x00, 0x00, 0x00, 0x3b, 0x94, 0x2d, 0xbb, 0xf1, 0xca, 0x8e, 0x3d, 0xc3, 0x2b, 0xea, 0x3d, 0x68, 0x24, 0xe0, 0x3d,
  0xfd, 0x9a, 0xcf, 0x3d, 0xb3, 0x3c, 0xa5, 0x3d, 0x27, 0x7b, 0x91, 0x3d, 0x57, 0x8e, 0x93, 0x3a, 0x5d, 0x46, 0x9d, 0x3d, 0x00, 0x00, 0x00, 0x00, 0x00, 0x00, 0x00, 0x00, 0x00, 0x00, 0x00, 0x00,
  0x6f, 0xc5, 0x24, 0x3c, 0x0e, 0x7d, 0xc7, 0x3d, 0xdd, 0x2d, 0x6b, 0xbd, 0x01, 0xf1, 0x86, 0x3d, 0xfc, 0x52, 0x85, 0xbd, 0xce, 0xf6, 0x9b, 0xbd, 0x50, 0xb7, 0x0c, 0xbe, 0x11, 0x33, 0x93, 0xbd,
  0xc3, 0xda, 0xcd, 0xbd, 0x00, 0x00, 0x00, 0x00, 0x00, 0x00, 0x00, 0x00, 0x00, 0x00, 0x00, 0x00, 0xbd, 0x0c, 0xcd, 0xbd, 0xe2, 0xf7, 0x0e, 0xbe, 0x85, 0xef, 0xa6, 0xbd, 0xfc, 0x04, 0x3a, 0xbd,
  0x24, 0xc2, 0x5f, 0xbe, 0x3f, 0x7c, 0xc0, 0x3c, 0xdd, 0xae, 0x3d, 0xbd, 0xc5, 0x70, 0x6b, 0xbd, 0x30, 0xaf, 0x19, 0x3d, 0x00, 0x00, 0x00, 0x00, 0x00, 0x00, 0x00, 0x00, 0x00, 0x00, 0x00, 0x00,
  0x0f, 0x8c, 0xec, 0x3d, 0x04, 0xe4, 0x45, 0xbe, 0x09, 0x87, 0x13, 0xbc, 0x8e, 0x05, 0x10, 0x3e, 0x5d, 0x2f, 0xc3, 0xbe, 0x0d, 0x74, 0x21, 0xbe, 0x03, 0x30, 0x81, 0xbe, 0xee, 0x60, 0x78, 0x3e,
  0xac, 0x4f, 0x07, 0x3d, 0x00, 0x00, 0x00, 0x00, 0x00, 0x00, 0x00, 0x00, 0x00, 0x00, 0x00, 0x00, 0xf1, 0xca, 0xb0, 0x3d, 0x50, 0x55, 0xab, 0x3e, 0xe0, 0xf0, 0xc6, 0xbd, 0xb0, 0x6e, 0x97, 0x3d,
  0xcb, 0x03, 0xaf, 0x3d, 0x50, 0xdd, 0xdd, 0x3d, 0xf8, 0xa4, 0x90, 0x3e, 0xf5, 0x03, 0x88, 0x3e, 0x0f, 0x19, 0x69, 0x3e, 0x00, 0x00, 0x00, 0x00, 0x00, 0x00, 0x00, 0x00, 0x00, 0x00, 0x00, 0x00,
  0xa5, 0xab, 0x0c, 0xbf, 0x9a, 0x37, 0xf3, 0x3d, 0x58, 0xf2, 0xc6, 0x3e, 0x3c, 0xe7, 0x1d, 0x3d, 0xc9, 0xf5, 0x95, 0x3e, 0x70, 0x20, 0x9a, 0x3e, 0x59, 0x28, 0xe7, 0xbd, 0x8b, 0xa3, 0x20, 0x3e,
  0xe9, 0xdb, 0x98, 0xbd, 0x00, 0x00, 0x00, 0x00, 0x00, 0x00, 0x00, 0x00, 0x00, 0x00, 0x00, 0x00, 0xba, 0x67, 0x60, 0x3e, 0x07, 0xe9, 0x80, 0x3e, 0x84, 0xc8, 0x01, 0xbe, 0x90, 0x0c, 0x33, 0xbe,
  0x29, 0x4d, 0x88, 0xbe, 0x94, 0x72, 0x85, 0xbd, 0x36, 0xa8, 0xb9, 0x3e, 0x25, 0xa0, 0x26, 0x3e, 0x91, 0xa3, 0x1e, 0xbe, 0x00, 0x00, 0x00, 0x00, 0x00, 0x00, 0x00, 0x00, 0x00, 0x00, 0x00, 0x00,
  0x40, 0xc8, 0x89, 0xbe, 0x3e, 0x03, 0xc6, 0x3e, 0x2d, 0xc4, 0x58, 0x3e, 0x4b, 0x0c, 0xb6, 0x3d, 0xbb, 0xc3, 0xcf, 0x3d, 0x62, 0x75, 0x17, 0xbf, 0xdc, 0x48, 0x14, 0xbf, 0xea, 0x0d, 0xb8, 0xbe,
  0x0e, 0x17, 0xba, 0xbd, 0x00, 0x00, 0x00, 0x00, 0x00, 0x00, 0x00, 0x00, 0x00, 0x00, 0x00, 0x00, 0xb3, 0xa8, 0x71, 0xbc, 0xab, 0x14, 0x36, 0x3e, 0x66, 0xef, 0x49, 0xbd, 0xe2, 0x9a, 0xfb, 0x3d,
  0x5b, 0x32, 0x99, 0xbe, 0xe0, 0x5d, 0x8b, 0x3e, 0x9e, 0x3c, 0x2e, 0x3d, 0x4e, 0x5e, 0xc5, 0xbe, 0xbb, 0x05, 0xe8, 0xbe, 0x00, 0x00, 0x00, 0x00, 0x00, 0x00, 0x00, 0x00, 0x00, 0x00, 0x00, 0x00,
  0x1c, 0x0d, 0xb2, 0x3e, 0x4a, 0x09, 0xc2, 0xbe, 0x22, 0xdb, 0x97, 0xbe, 0x31, 0xf0, 0xbe, 0x3d, 0xec, 0x2f, 0x9f, 0x3e, 0x12, 0xdb, 0xcd, 0xbb, 0x4d, 0x1b, 0xbc, 0x3d, 0x65, 0x88, 0x83, 0xbe,
  0x5b, 0x97, 0xad, 0xbe, 0x00, 0x00, 0x00, 0x00, 0x00, 0x00, 0x00, 0x00, 0x00, 0x00, 0x00, 0x00, 0x22, 0xe8, 0x64, 0xbf, 0x7e, 0x77, 0x82, 0xbe, 0x2b, 0x58, 0xc8, 0x3e, 0x45, 0x4f, 0xa8, 0x3e,
  0xe2, 0xa8, 0x7e, 0x3d, 0x8f, 0xe7, 0x70, 0xbe, 0x7c, 0x6d, 0xa3, 0xbe, 0x2b, 0xc2, 0x10, 0x3d, 0x5d, 0x0d, 0x87, 0x3e, 0x00, 0x00, 0x00, 0x00, 0x00, 0x00, 0x00, 0x00, 0x00, 0x00, 0x00, 0x00,
  0x3c, 0x85, 0x57, 0xbe, 0xab, 0xa8, 0xa6, 0x3d, 0x4f, 0x97, 0x9e, 0xbd, 0xbe, 0x7f, 0x0d, 0x3d, 0x6c, 0x99, 0xd7, 0xbd, 0xe0, 0xf3, 0xfe, 0x3c, 0xaa, 0xc8, 0x21, 0xbe, 0x0c, 0xa8, 0x73, 0x3e,
  0x6d, 0x08, 0x96, 0x3c, 0x00, 0x00, 0x00, 0x00, 0x00, 0x00, 0x00, 0x00, 0x00, 0x00, 0x00, 0x00, 0x08, 0x3f, 0x59, 0xbe, 0xa7, 0x8e, 0x82, 0xbe, 0x9a, 0x7d, 0x81, 0xbe, 0x28, 0x73, 0xfd, 0x3d,
  0x86, 0xf3, 0x41, 0x3e, 0x5a, 0x47, 0x28, 0x3e, 0x3f, 0x03, 0x74, 0xbe, 0x10, 0xb0, 0x9f, 0xbe, 0xdb, 0xa5, 0x73, 0xbf, 0x00, 0x00, 0x00, 0x00, 0x00, 0x00, 0x00, 0x00, 0x00, 0x00, 0x00, 0x00,
  0x6d, 0x92, 0x71, 0xbe, 0xdc, 0x55, 0x2d, 0xbe, 0xf3, 0xed, 0x6e, 0x3d, 0x46, 0xb4, 0xa5, 0x3d, 0xbc, 0x40, 0x56, 0xbe, 0xdd, 0x83, 0xa1, 0xbe, 0xd8, 0xa7, 0x30, 0xbe, 0xde, 0xe2, 0x83, 0xbe,
  0xc9, 0x67, 0xbd, 0x3e, 0x00, 0x00, 0x00, 0x00, 0x00, 0x00, 0x00, 0x00, 0x00, 0x00, 0x00, 0x00, 0x54, 0xcb, 0x97, 0x3d, 0xcd, 0x7c, 0x1c, 0xbe, 0xd9, 0xf4, 0xcb, 0xbd, 0x4f, 0x32, 0x5b, 0x3e,
  0x46, 0x1e, 0x93, 0xbd, 0x6b, 0xb9, 0x2d, 0xbe, 0x6f, 0xe4, 0x6c, 0xbe, 0x2e, 0xed, 0xcc, 0xbd, 0xa8, 0x86, 0x8c, 0xbe, 0x00, 0x00, 0x00, 0x00, 0x00, 0x00, 0x00, 0x00, 0x00, 0x00, 0x00, 0x00
};
static unsigned char unet_encoder1_conv1d_block_0_conv1d_bias[32] __attribute__((aligned(4))) = {
  0xe8, 0xd7, 0x05, 0x3f, 0xa0, 0x20, 0x62, 0x3e, 0x5c, 0xe6, 0xac, 0x3e, 0x3b, 0x6c, 0x61, 0x3f, 0x83, 0x11, 0x7c, 0x3f, 0x74, 0x17, 0xaf, 0xbf, 0x00, 0x02, 0xf3, 0x3f, 0x69, 0xe7, 0x1c, 0x40
};
static unsigned char unet_encoder1_conv1d_block_1_conv1d_weight[3072] __attribute__((aligned(4))) = {
  0x1d, 0xb8, 0xdc, 0x3d, 0xb5, 0x21, 0x0b, 0x3e, 0x68, 0x64, 0x27, 0x3e, 0x09, 0xe3, 0xd3, 0x3d, 0x99, 0x50, 0x60, 0x3d, 0x49, 0xcd, 0x2e, 0xbd, 0x9e, 0xa0, 0xe2, 0x3c, 0xe4, 0x57, 0xdb, 0xbc,
  0xea, 0x02, 0x12, 0xbd, 0x00, 0x00, 0x00, 0x00, 0x00, 0x00, 0x00, 0x00, 0x00, 0x00, 0x00, 0x00, 0x94, 0x05, 0xd4, 0xbd, 0x39, 0x99, 0x30, 0xbe, 0x22, 0x13, 0x14, 0xbe, 0xf1, 0x34, 0x4e, 0x3c,
  0x96, 0xe7, 0x0b, 0xbe, 0x08, 0xf9, 0xcd, 0x3c, 0x6f, 0x55, 0xb6, 0x3c, 0x7c, 0xb0, 0xd6, 0x3d, 0xff, 0x81, 0x65, 0x3e, 0x00, 0x00, 0x00, 0x00, 0x00, 0x00, 0x00, 0x00, 0x00, 0x00, 0x00, 0x00,
  0xb5, 0x9e, 0x1f, 0xbe, 0x8a, 0xd0, 0x8f, 0xbd, 0x3f, 0x49, 0x76, 0xbd, 0xc2, 0x4b, 0xe4, 0x3c, 0x40, 0x41, 0xd6, 0xbd, 0xeb, 0x92, 0x89, 0xbd, 0x99, 0x79, 0x2d, 0xbd, 0x51, 0xfd, 0xaa, 0xbd,
  0xbb, 0x74, 0x4d, 0xbd, 0x00, 0x00, 0x00, 0x00, 0x00, 0x00, 0x00, 0x00, 0x00, 0x00, 0x00, 0x00, 0x43, 0xb9, 0xe0, 0xbd, 0xd7, 0xd6, 0x22, 0x3d, 0x81, 0xcf, 0x39, 0xbc, 0xf8, 0x34, 0x0b, 0x3d,
  0xf4, 0xb0, 0x39, 0xbd, 0x66, 0xe5, 0xcb, 0xbd, 0xfa, 0x1d, 0xb2, 0x3d, 0x23, 0xc2, 0xcf, 0x3d, 0x35, 0x7d, 0x20, 0xbd, 0x00, 0x00, 0x00, 0x00, 0x00, 0x00, 0x00, 0x00, 0x00, 0x00, 0x00, 0x00,
  0x27, 0xb6, 0x51, 0xbd, 0x53, 0x9b, 0x98, 0x3c, 0x13, 0xcf, 0x07, 0xbd, 0x83, 0xb5, 0x9e, 0x3d, 0xb1, 0xb6, 0xa0, 0x3d, 0x86, 0x49, 0x53, 0x3d, 0xbf, 0x7c, 0x52, 0x3e, 0x9e, 0x35, 0x64, 0x3e,
  0x6e, 0x17, 0xee, 0x3d, 0x00, 0x00, 0x00, 0x00, 0x00, 0x00, 0x00, 0x00, 0x00, 0x00, 0x00, 0x00, 0xe1, 0xa1, 0x84, 0xbd, 0xd4, 0xd0, 0x21, 0xbd, 0x18, 0x34, 0x32, 0x3d, 0x1b, 0x96, 0x80, 0xbd,
  0x98, 0xe3, 0x62, 0xbe, 0x6b, 0x71, 0x53, 0xbe, 0x29, 0x85, 0x60, 0xbe, 0x4a, 0x64, 0xd4, 0xbd, 0x54, 0x58, 0x32, 0xbe, 0x00, 0x00, 0x00, 0x00, 0x00, 0x00, 0x00, 0x00, 0x00, 0x00, 0x00, 0x00,
  0xf2, 0x10, 0xc5, 0x3d, 0x8b, 0x45, 0x08, 0x3e, 0x8c, 0x9c, 0x45, 0x3e, 0xb3, 0x83, 0x59, 0x3d, 0x26, 0x87, 0x37, 0x3d, 0x8e, 0xa6, 0x9e, 0xbd, 0xb8, 0xff, 0xd0, 0x3d, 0x08, 0x3c, 0x98, 0x3e,
  0x32, 0x39, 0xf5, 0x3e, 0x00, 0x00, 0x00, 0x00, 0x00, 0x00, 0x00, 0x00, 0x00, 0x00, 0x00, 0x00, 0x86, 0x11, 0xe9, 0xbd, 0x5e, 0x70, 0x12, 0xbe, 0xd2, 0xf5, 0xda, 0xbd, 0xc0, 0xf3, 0x37, 0xbe,
  0x69, 0xe6, 0x37, 0xbe, 0x7e, 0x9c, 0xe4, 0x3d, 0x62, 0x10, 0x03, 0x3d, 0x36, 0x31, 0xd0, 0xbd, 0xae, 0x4e, 0x93, 0xbe, 0x00, 0x00, 0x00, 0x00, 0x00, 0x00, 0x00, 0x00, 0x00, 0x00, 0x00, 0x00,
  0x22, 0xf5, 0x35, 0xbe, 0xae, 0x7d, 0x3a, 0xbe, 0x70, 0x0b, 0x92, 0xbd, 0x4c, 0x4f, 0xb0, 0x3d, 0xcd, 0x8d, 0x07, 0x3e, 0xfe, 0xaa, 0xba, 0x3d, 0x09, 0x60, 0x06, 0x3e, 0xe1, 0x82, 0x7f, 0x3d,
  0x0e, 0xc1, 0x6d, 0x3d, 0x00, 0x00, 0x00, 0x00, 0x00, 0x00, 0x00, 0x00, 0x00, 0x00, 0x00, 0x00, 0xa9, 0x56, 0x63, 0xbe, 0x93, 0x8c, 0x90, 0x3e, 0xf0, 0x5e, 0x42, 0x3d, 0x11, 0x42, 0x51, 0xbd,
  0x07, 0xe9, 0xcb, 0xbd, 0xc5, 0x72, 0x03, 0xbe, 0x9d, 0x16, 0x7a, 0xbe, 0x79, 0xae, 0x19, 0xbe, 0x5a, 0x78, 0xa5, 0xbd, 0x00, 0x00, 0x00, 0x00, 0x00, 0x00, 0x00, 0x00, 0x00, 0x00, 0x00, 0x00,
  0xc4, 0x40, 0xf7, 0x3c, 0x76, 0x49, 0x6d, 0x3e, 0x75, 0x1d, 0xcf, 0xbd, 0x36, 0xc9, 0x9c, 0x3c, 0x33, 0x89, 0xcb, 0xbd, 0xb7, 0xba, 0x53, 0xbe, 0xa9, 0x2a, 0xd8, 0x3d, 0xac, 0x0f, 0x49, 0x3e,
  0x0d, 0x93, 0x52, 0x3e, 0x00, 0x00, 0x00, 0x00, 0x00, 0x00, 0x00, 0x00, 0x00, 0x00, 0x00, 0x00, 0x5f, 0xef, 0xf8, 0xbd, 0x45, 0x00, 0x22, 0x3d, 0xd1, 0xf1, 0xb7, 0x3c, 0x1e, 0x5b, 0x4b, 0x3d,
  0x74, 0x1e, 0x4e, 0x3c, 0x61, 0xda, 0x82, 0x3d, 0x2b, 0xcf, 0xd9, 0xba, 0xf9, 0x28, 0xae, 0xbd, 0xea, 0x43, 0x4d, 0xbe, 0x00, 0x00, 0x00, 0x00, 0x00, 0x00, 0x00, 0x00, 0x00, 0x00, 0x00, 0x00,
  0xef, 0xb8, 0x45, 0xbd, 0xe4, 0x6b, 0x2b, 0xbe, 0xe5, 0x62, 0xe3, 0xbd, 0x34, 0x9e, 0x81, 0xbe, 0xbd, 0xfa, 0x37, 0xbe, 0xef, 0x2a, 0x2d, 0xbe, 0xc0, 0x8f, 0x4a, 0x3d, 0x97, 0x86, 0xb5, 0x3c,
  0x25, 0x43, 0xab, 0xba, 0x00, 0x00, 0x00, 0x00, 0x00, 0x00, 0x00, 0x00, 0x00, 0x00, 0x00, 0x00, 0x7b, 0xe8, 0xc9, 0xbd, 0xa9, 0xb1, 0xb3, 0xbd, 0x23, 0x63, 0x24, 0xbd, 0x38, 0x84, 0xc3, 0xbc,
  0xbb, 0xf4, 0x92, 0xbc, 0x48, 0x3c, 0xcd, 0x3d, 0xe0, 0xad, 0xe6, 0x3d, 0xd8, 0x39, 0x94, 0x3d, 0x45, 0x1a, 0xb4, 0x3d, 0x00, 0x00, 0x00, 0x00, 0x00, 0x00, 0x00, 0x00, 0x00, 0x00, 0x00, 0x00,
  0x0c, 0x86, 0x72, 0x3d, 0x48, 0x8c, 0xe0, 0x3c, 0x0f, 0x2c, 0x36, 0x3c, 0x09, 0x3f, 0x38, 0xbe, 0xd5, 0x95, 0x7b, 0x3d, 0xca, 0xc9, 0x3e, 0xbc, 0x6a, 0x7c, 0x32, 0x3e, 0xc3, 0xc5, 0xa5, 0x3e,
  0xab, 0x09, 0x34, 0x3e, 0x00, 0x00, 0x00, 0x00, 0x00, 0x00, 0x00, 0x00, 0x00, 0x00, 0x00, 0x00, 0x65, 0xe7, 0x42, 0x3e, 0xc0, 0x44, 0x22, 0x3e, 0xd5, 0x4c, 0xe7, 0x3d, 0x57, 0x1b, 0x24, 0xbe,
  0xd0, 0x27, 0x36, 0xbe, 0x3d, 0xcf, 0xd1, 0xbb, 0x8a, 0x6b, 0x07, 0xbe, 0x1d, 0x0d, 0xad, 0xbc, 0xf4, 0x71, 0x00, 0xbe, 0x00, 0x00, 0x00, 0x00, 0x00, 0x00, 0x00, 0x00, 0x00, 0x00, 0x00, 0x00,
  0xd0, 0x59, 0xaf, 0xbd, 0x16, 0xf3, 0x0d, 0xbe, 0x8c, 0x33, 0x41, 0xbe, 0xe3, 0xbc, 0x09, 0xbe, 0x3c, 0xe5, 0x00, 0xbe, 0xea, 0x5c, 0x55, 0xbd, 0xc2, 0x0d, 0x8a, 0x3d, 0x62, 0x38, 0xd8, 0xbd,
  0xc2, 0x2e, 0xb5, 0xbd, 0x00, 0x00, 0x00, 0x00, 0x00, 0x00, 0x00, 0x00, 0x00, 0x00, 0x00, 0x00, 0x83, 0xb9, 0x56, 0xbd, 0xe8, 0x7b, 0x7c, 0x3d, 0xc3, 0x1c, 0x4d, 0xbd, 0xdd, 0xda, 0x8b, 0xbc,
  0x42, 0x8b, 0xaa, 0xbc, 0x8d, 0x80, 0x02, 0xbe, 0x6c, 0xed, 0x72, 0xbd, 0xf1, 0x0c, 0x96, 0xbd, 0xb9, 0x92, 0x71, 0xbc, 0x00, 0x00, 0x00, 0x00, 0x00, 0x00, 0x00, 0x00, 0x00, 0x00, 0x00, 0x00,
  0xfa, 0x53, 0x8e, 0xbd, 0xe3, 0xa7, 0x29, 0xbe, 0xab, 0x80, 0x8c, 0xbd, 0x32, 0x0b, 0x61, 0xbc, 0xca, 0x6e, 0xe8, 0xbd, 0x5e, 0x55, 0x55, 0x3d, 0x45, 0x98, 0xa5, 0xbc, 0x05, 0x54, 0x8f, 0xbd,
  0x19, 0xce, 0x7f, 0xbe, 0x00, 0x00, 0x00, 0x00, 0x00, 0x00, 0x00, 0x00, 0x00, 0x00, 0x00, 0x00, 0x29, 0xed, 0xb4, 0xbd, 0xbd, 0x00, 0xaf, 0x3c, 0x6f, 0xec, 0xda, 0x3d, 0xe1, 0xd5, 0x65, 0xbb,
  0x24, 0x7b, 0x00, 0xbb, 0x28, 0x25, 0x3c, 0x3c, 0xce, 0xeb, 0xef, 0x3d, 0xe8, 0x05, 0x0e, 0x3d, 0x7c, 0xde, 0x74, 0x3c, 0x00, 0x00, 0x00, 0x00, 0x00, 0x00, 0x00, 0x00, 0x00, 0x00, 0x00, 0x00,
  0xd2, 0xf5, 0x33, 0xbe, 0x47, 0xc2, 0xfe, 0xbd, 0xaa, 0xae, 0x36, 0xbe, 0xbd, 0x02, 0x3c, 0xbe, 0xff, 0x62, 0x0c, 0xbe, 0xfc, 0x40, 0x2f, 0xbe, 0x4c, 0x81, 0xd8, 0xbb, 0xa5, 0xeb, 0x00, 0xbe,
  0x2b, 0xac, 0x2e, 0xbe, 0x00, 0x00, 0x00, 0x00, 0x00, 0x00, 0x00, 0x00, 0x00, 0x00, 0x00, 0x00, 0x91, 0xdc, 0x4b, 0xbc, 0x7b, 0x20, 0x48, 0x3d, 0xde, 0x5b, 0x85, 0x3b, 0x1e, 0x29, 0x3c, 0xbd,
  0xd3, 0x35, 0xb6, 0x3d, 0xf3, 0x6d, 0x9d, 0x3d, 0xd0, 0xe9, 0xe8, 0x3d, 0xe7, 0x69, 0xe1, 0x3c, 0x7a, 0x2d, 0x75, 0xbd, 0x00, 0x00, 0x00, 0x00, 0x00, 0x00, 0x00, 0x00, 0x00, 0x00, 0x00, 0x00,
  0x66, 0xa2, 0x6f, 0xbe, 0x09, 0x90, 0x02, 0xbd, 0x5c, 0x4f, 0xcc, 0xbd, 0x70, 0x93, 0xb8, 0xbd, 0xb8, 0x23, 0x43, 0xbe, 0x85, 0xe7, 0xd0, 0xbc, 0xf5, 0x50, 0xbb, 0xbd, 0xb8, 0x3d, 0x35, 0xbe,
  0xea, 0x5f, 0x03, 0xbe, 0x00, 0x00, 0x00, 0x00, 0x00, 0x00, 0x00, 0x00, 0x00, 0x00, 0x00, 0x00, 0x34, 0x3c, 0xc2, 0x3d, 0xb2, 0x56, 0x18, 0x3e, 0xd8, 0x42, 0x8b, 0x3c, 0x35, 0xe6, 0xb5, 0x3d,
  0x41, 0xf2, 0xc1, 0x3c, 0x3d, 0x85, 0x7b, 0x3d, 0x5a, 0xd4, 0xdc, 0x3c, 0xcb, 0x60, 0x8f, 0x3c, 0x54, 0x6a, 0x7a, 0x3d, 0x00, 0x00, 0x00, 0x00, 0x00, 0x00, 0x00, 0x00, 0x00, 0x00, 0x00, 0x00,
  0xb4, 0xee, 0x47, 0x3d, 0x2c, 0xc5, 0x1e, 0x3e, 0xf2, 0x04, 0x09, 0xbd, 0x46, 0x20, 0xbb, 0x3d, 0x9c, 0x0b, 0x82, 0x3e, 0x84, 0xae, 0x47, 0x3e, 0xc3, 0x55, 0xb8, 0x3d, 0x97, 0x56, 0x76, 0x3e,
  0x6a, 0xc4, 0x85, 0x3e, 0x00, 0x00, 0x00, 0x00, 0x00, 0x00, 0x00, 0x00, 0x00, 0x00, 0x00, 0x00, 0x66, 0x3b, 0x4d, 0x3e, 0x73, 0xfd, 0x2b, 0x3e, 0x32, 0xc5, 0xea, 0xbd, 0xaf, 0x59, 0xa0, 0xbb,
  0x92, 0xc6, 0xd7, 0xbd, 0xf5, 0x25, 0x8f, 0xbd, 0x6a, 0x36, 0x8d, 0xbd, 0x4c, 0xf2, 0x40, 0xbd, 0xab, 0x82, 0x4e, 0xbd, 0x00, 0x00, 0x00, 0x00, 0x00, 0x00, 0x00, 0x00, 0x00, 0x00, 0x00, 0x00,
  0x90, 0xd1, 0x0e, 0xbd, 0x29, 0xbe, 0x65, 0xbe, 0x09, 0xbd, 0x26, 0x3e, 0x22, 0x01, 0xcd, 0x3e, 0x38, 0x3d, 0x70, 0x3e, 0xdd, 0x0f, 0xc9, 0x3d, 0x1e, 0x04, 0x20, 0x3e, 0x12, 0xe4, 0x91, 0x3c,
  0xa1, 0x09, 0x59, 0xbd, 0x00, 0x00, 0x00, 0x00, 0x00, 0x00, 0x00, 0x00, 0x00, 0x00, 0x00, 0x00, 0x55, 0xe4, 0xbb, 0x3d, 0xa6, 0xee, 0xee, 0xbc, 0x99, 0x14, 0x97, 0xbd, 0xc7, 0x79, 0xaf, 0xbb,
  0x32, 0x84, 0x20, 0xbc, 0x75, 0x1f, 0x1a, 0x3e, 0xce, 0x92, 0x72, 0xbd, 0x3b, 0x1e, 0x88, 0x3d, 0x17, 0x57, 0xa5, 0x3c, 0x00, 0x00, 0x00, 0x00, 0x00, 0x00, 0x00, 0x00, 0x00, 0x00, 0x00, 0x00,
  0xfb, 0x38, 0x2d, 0xbc, 0xf1, 0x47, 0xfe, 0x3d, 0xe3, 0x3b, 0x3a, 0x3e, 0xfd, 0x54, 0x78, 0x3d, 0xdc, 0x42, 0xa4, 0x3e, 0xa2, 0x9e, 0x79, 0x3e, 0x8f, 0xae, 0x55, 0x3e, 0x12, 0x9b, 0xae, 0x3d,
  0xb0, 0x50, 0x00, 0x3e, 0x00, 0x00, 0x00, 0x00, 0x00, 0x00, 0x00, 0x00, 0x00, 0x00, 0x00, 0x00, 0x0f, 0x46, 0x82, 0xbe, 0x8f, 0x5a, 0x88, 0xbd, 0xdc, 0x91, 0x11, 0x3c, 0xb8, 0x0c, 0x43, 0xbe,
  0x82, 0x91, 0x5e, 0xbc, 0xde, 0x45, 0x5f, 0xbd, 0x81, 0xb5, 0x91, 0xbb, 0x32, 0x21, 0x23, 0xbe, 0x1b, 0x04, 0xfe, 0xbd, 0x00, 0x00, 0x00, 0x00, 0x00, 0x00, 0x00, 0x00, 0x00, 0x00, 0x00, 0x00,
  0xbe, 0xec, 0x87, 0xbd, 0xeb, 0x3e, 0x56, 0x3d, 0x50, 0x86, 0x06, 0x3e, 0x66, 0x82, 0x8d, 0x3d, 0x67, 0x0c, 0x78, 0xbd, 0x13, 0x46, 0x91, 0x3d, 0x02, 0x87, 0x90, 0xbc, 0xe4, 0xf9, 0x6b, 0xbe,
  0xa3, 0x26, 0x71, 0xbd, 0x00, 0x00, 0x00, 0x00, 0x00, 0x00, 0x00, 0x00, 0x00, 0x00, 0x00, 0x00, 0x71, 0x7c, 0x03, 0xbe, 0x58, 0x4e, 0x43, 0xbe, 0xc7, 0x65, 0xc9, 0xbe, 0x1f, 0xc6, 0xad, 0xbd,
  0x43, 0xd7, 0x8e, 0xbc, 0x4c, 0x52, 0x77, 0x3e, 0x17, 0x2f, 0x3c, 0x3a, 0x97, 0xf1, 0x42, 0x3d, 0x2d, 0xc3, 0x05, 0x3e, 0x00, 0x00, 0x00, 0x00, 0x00, 0x00, 0x00, 0x00, 0x00, 0x00, 0x00, 0x00,
  0x46, 0xec, 0x5b, 0xbd, 0x15, 0xb3, 0x5f, 0xbe, 0xc7, 0x31, 0x4f, 0xbe, 0xaa, 0x05, 0xc5, 0xbd, 0xf4, 0x79, 0x63, 0x3d, 0x96, 0x46, 0xbf, 0x3c, 0x59, 0x42, 0x93, 0x3b, 0xde, 0x7a, 0x93, 0x3b,
  0x23, 0xda, 0xbb, 0x3c, 0x00, 0x00, 0x00, 0x00, 0x00, 0x00, 0x00, 0x00, 0x00, 0x00, 0x00, 0x00, 0xdd, 0xd9, 0x30, 0x3b, 0xcb, 0xd3, 0xd3, 0x3d, 0x87, 0xa2, 0xda, 0x3d, 0x1c, 0x3f, 0xbe, 0x3c,
  0x3a, 0x42, 0x94, 0xbe, 0xb3, 0x8f, 0xda, 0xbd, 0x1f, 0xe0, 0x64, 0xbe, 0xce, 0x2a, 0xde, 0xbc, 0xf0, 0x6b, 0x41, 0x3d, 0x00, 0x00, 0x00, 0x00, 0x00, 0x00, 0x00, 0x00, 0x00, 0x00, 0x00, 0x00,
  0x31, 0x00, 0xd9, 0x3d, 0x6c, 0x42, 0xdc, 0x3d, 0x85, 0x7a, 0x9c, 0xbd, 0x1b, 0x83, 0x4e, 0xbd, 0x90, 0x15, 0x15, 0xbf, 0x72, 0x98, 0x2d, 0xbe, 0xf6, 0x0b, 0x98, 0x3d, 0xa5, 0x35, 0x85, 0xbd,
  0x26, 0x5f, 0x84, 0xbc, 0x00, 0x00, 0x00, 0x00, 0x00, 0x00, 0x00, 0x00, 0x00, 0x00, 0x00, 0x00, 0x21, 0x99, 0x01, 0xbd, 0x0e, 0x5e, 0x43, 0x3c, 0x5a, 0xae, 0x70, 0xbd, 0xdc, 0xa3, 0xf2, 0xbd,
  0xc1, 0xf3, 0xf7, 0xbd, 0x97, 0xf2, 0x65, 0x3d, 0xdc, 0xdd, 0x50, 0x3d, 0x64, 0x7a, 0xa5, 0x3d, 0xec, 0x72, 0x05, 0xbd, 0x00, 0x00, 0x00, 0x00, 0x00, 0x00, 0x00, 0x00, 0x00, 0x00, 0x00, 0x00,
  0xb7, 0xe6, 0x89, 0xbd, 0x8d, 0xb8, 0x95, 0xbe, 0x60, 0x77, 0xc4, 0xbd, 0xec, 0x27, 0x39, 0xbd, 0x09, 0xac, 0x0f, 0xbd, 0x7c, 0xf4, 0x75, 0xbe, 0xb9, 0x15, 0x8f, 0xbe, 0xbf, 0x19, 0x54, 0xbe,
  0xe4, 0x69, 0x98, 0xbe, 0x00, 0x00, 0x00, 0x00, 0x00, 0x00, 0x00, 0x00, 0x00, 0x00, 0x00, 0x00, 0xda, 0xfe, 0xe2, 0xbd, 0x24, 0x57, 0x12, 0x3e, 0xc7, 0x25, 0x0c, 0x3e, 0xeb, 0xd9, 0x4d, 0x3d,
  0x98, 0x2c, 0x8c, 0x3d, 0xf9, 0xa1, 0x43, 0xbe, 0x90, 0x49, 0x98, 0xbe, 0xae, 0xe5, 0x1b, 0xbe, 0xd4, 0xee, 0x6b, 0xbd, 0x00, 0x00, 0x00, 0x00, 0x00, 0x00, 0x00, 0x00, 0x00, 0x00, 0x00, 0x00,
  0xc7, 0x76, 0x8e, 0x3c, 0xfd, 0x35, 0xce, 0xbd, 0x4c, 0x5b, 0xdc, 0x3c, 0xf5, 0x95, 0x02, 0x3d, 0xe1, 0xed, 0x69, 0x3d, 0x3c, 0xf7, 0x39, 0x3e, 0x08, 0xb6, 0x4d, 0x3e, 0x1d, 0xe7, 0xa1, 0xbc,
  0xb3, 0x58, 0xca, 0xba, 0x00, 0x00, 0x00, 0x00, 0x00, 0x00, 0x00, 0x00, 0x00, 0x00, 0x00, 0x00, 0xb9, 0xa2, 0xf2, 0x3d, 0xcb, 0xb5, 0x92, 0x3e, 0x92, 0x40, 0x06, 0x3e, 0xb8, 0xea, 0x32, 0x3e,
  0xe2, 0xea, 0xc9, 0xbc, 0x46, 0xe6, 0x60, 0xbe, 0xad, 0x74, 0x31, 0x3c, 0x36, 0xd8, 0x15, 0x3d, 0x32, 0xfb, 0x1b, 0x3e, 0x00, 0x00, 0x00, 0x00, 0x00, 0x00, 0x00, 0x00, 0x00, 0x00, 0x00, 0x00,
  0x8c, 0x87, 0x11, 0x3e, 0x9f, 0xd9, 0x6e, 0x3d, 0x04, 0x99, 0x85, 0x3d, 0x29, 0x36, 0x74, 0xbd, 0x59, 0x89, 0x88, 0x3d, 0x2d, 0x0b, 0x9a, 0x3d, 0x49, 0xbb, 0x1b, 0xbd, 0xfc, 0x22, 0xbe, 0xbc,
  0xc5, 0x09, 0x29, 0xbe, 0x00, 0x00, 0x00, 0x00, 0x00, 0x00, 0x00, 0x00, 0x00, 0x00, 0x00, 0x00, 0x9f, 0xb4, 0x05, 0xbd, 0xdd, 0x4e, 0x21, 0x3e, 0x0c, 0x0c, 0x5d, 0x3d, 0xbd, 0x45, 0x16, 0x3e,
  0xe6, 0x9b, 0xce, 0xbc, 0x7a, 0x0c, 0x9f, 0xbd, 0x00, 0x58, 0x48, 0xbe, 0x10, 0xdc, 0x8a, 0xbd, 0xee, 0xef, 0x96, 0xbc, 0x00, 0x00, 0x00, 0x00, 0x00, 0x00, 0x00, 0x00, 0x00, 0x00, 0x00, 0x00,
  0x4c, 0x43, 0x00, 0xbe, 0x93, 0xa4, 0xa2, 0xbd, 0x2a, 0x44, 0xfd, 0x3d, 0x4e, 0x7e, 0x25, 0xbd, 0xa2, 0xc3, 0x27, 0xbd, 0xb8, 0xd1, 0x68, 0xbe, 0x91, 0xa7, 0x74, 0xbe, 0xfa, 0x30, 0xc5, 0xbc,
  0xc9, 0x2d, 0xb9, 0xbd, 0x00, 0x00, 0x00, 0x00, 0x00, 0x00, 0x00, 0x00, 0x00, 0x00, 0x00, 0x00, 0xe8, 0xe3, 0x3a, 0x3d, 0x52, 0x3e, 0x7d, 0x3d, 0xe4, 0xe2, 0xe4, 0x3c, 0xb1, 0xa4, 0xa4, 0x3d,
  0x13, 0x40, 0xa0, 0xbd, 0x73, 0xd2, 0xcf, 0xbd, 0xd7, 0x16, 0x8a, 0x3e, 0xea, 0x9a, 0xb7, 0x3e, 0x14, 0x1e, 0xb2, 0x3e, 0x00, 0x00, 0x00, 0x00, 0x00, 0x00, 0x00, 0x00, 0x00, 0x00, 0x00, 0x00,
  0x0e, 0x06, 0x2f, 0x3e, 0x78, 0x4e, 0x55, 0x3c, 0xfb, 0xc7, 0x96, 0x3d, 0x87, 0x79, 0xbe, 0x3d, 0x29, 0x67, 0xef, 0x3c, 0xdf, 0x67, 0x18, 0x3e, 0x03, 0x46, 0x8d, 0xbd, 0xa2, 0x18, 0x82, 0xbd,
  0x08, 0x42, 0x91, 0xbc, 0x00, 0x00, 0x00, 0x00, 0x00, 0x00, 0x00, 0x00, 0x00, 0x00, 0x00, 0x00, 0xa4, 0x32, 0x3b, 0x3d, 0x1e, 0xe2, 0xa4, 0xbc, 0xca, 0xe1, 0x3b, 0x3d, 0x52, 0x32, 0x51, 0x3e,
  0xab, 0xee, 0x8d, 0xbc, 0x63, 0xcd, 0xda, 0xbd, 0x47, 0x05, 0x1a, 0xbd, 0x42, 0xc3, 0xb5, 0x3d, 0x44, 0x62, 0xa8, 0x3e, 0x00, 0x00, 0x00, 0x00, 0x00, 0x00, 0x00, 0x00, 0x00, 0x00, 0x00, 0x00,
  0x29, 0x4d, 0x67, 0xbd, 0xde, 0x4d, 0x5b, 0x3d, 0x46, 0xf6, 0xa3, 0xba, 0xb5, 0xf7, 0x5f, 0xbe, 0xba, 0xc8, 0x70, 0xbe, 0x54, 0xde, 0xe1, 0x3c, 0x1e, 0x74, 0x95, 0xbd, 0x79, 0x6e, 0x21, 0x3e,
  0xe2, 0xbe, 0xb1, 0x3d, 0x00, 0x00, 0x00, 0x00, 0x00, 0x00, 0x00, 0x00, 0x00, 0x00, 0x00, 0x00, 0x3c, 0x48, 0x49, 0xbe, 0x3a, 0x19, 0x8f, 0x3c, 0xdc, 0xf1, 0x02, 0xbe, 0x47, 0x91, 0x43, 0x3b,
  0x23, 0xe5, 0x19, 0xbd, 0x05, 0x9e, 0x2c, 0xbd, 0x71, 0xfe, 0xb1, 0x3c, 0x6d, 0x3e, 0x30, 0xbe, 0xc4, 0x46, 0x3a, 0xbe, 0x00, 0x00, 0x00, 0x00, 0x00, 0x00, 0x00, 0x00, 0x00, 0x00, 0x00, 0x00,
  0x2a, 0x9f, 0x94, 0x3d, 0x73, 0x39, 0xa3, 0x3d, 0xf9, 0xd4, 0x11, 0x3e, 0x5e, 0x18, 0x93, 0x3e, 0xae, 0x39, 0x2d, 0x3e, 0xb5, 0x1e, 0xb2, 0xbd, 0xce, 0x97, 0xd0, 0x3c, 0xfc, 0x16, 0x6b, 0x3d,
  0x41, 0xd0, 0x18, 0xbd, 0x00, 0x00, 0x00, 0x00, 0x00, 0x00, 0x00, 0x00, 0x00, 0x00, 0x00, 0x00, 0x8a, 0xb4, 0x4c, 0x3d, 0x6f, 0xd6, 0x8c, 0x3e, 0x32, 0x36, 0xa9, 0x3c, 0xff, 0xf7, 0xbc, 0x3d,
  0xa2, 0x9c, 0xab, 0xbe, 0x57, 0x18, 0x71, 0xbe, 0xba, 0x34, 0x64, 0xbe, 0x0a, 0x0f, 0x2e, 0x3d, 0x42, 0x7b, 0x71, 0x3e, 0x00, 0x00, 0x00, 0x00, 0x00, 0x00, 0x00, 0x00, 0x00, 0x00, 0x00, 0x00,
  0xed, 0xbe, 0x9b, 0x3c, 0xb2, 0x0a, 0xf8, 0xbd, 0xe7, 0x9b, 0x46, 0xbc, 0xf8, 0x35, 0x20, 0x3e, 0x99, 0x03, 0x41, 0x3d, 0x4c, 0xaa, 0x6c, 0xbe, 0x71, 0x97, 0x9a, 0xbe, 0x12, 0x8a, 0xb1, 0xbe,
  0x50, 0xb7, 0x0c, 0x3e, 0x00, 0x00, 0x00, 0x00, 0x00, 0x00, 0x00, 0x00, 0x00, 0x00, 0x00, 0x00, 0x86, 0x23, 0x5a, 0xbd, 0xd9, 0x36, 0x01, 0x3d, 0x84, 0xe4, 0xfe, 0x3d, 0xa6, 0x91, 0x04, 0x3d,
  0xeb, 0x4d, 0x9a, 0x3d, 0x27, 0x1e, 0x07, 0xbd, 0x0c, 0x13, 0xb4, 0x3e, 0xa9, 0x98, 0x02, 0x3e, 0xeb, 0x6f, 0x88, 0x3d, 0x00, 0x00, 0x00, 0x00, 0x00, 0x00, 0x00, 0x00, 0x00, 0x00, 0x00, 0x00,
  0xda, 0x27, 0x3f, 0x3e, 0x49, 0x9d, 0xc6, 0x3e, 0x81, 0x3c, 0xeb, 0x3b, 0xf1, 0x12, 0xd4, 0x3d, 0x69, 0x3d, 0x93, 0x3d, 0xab, 0xd0, 0x13, 0x3c, 0x47, 0x7e, 0x05, 0xbe, 0x57, 0xa4, 0x69, 0xbe,
  0x55, 0x6e, 0x8a, 0xbd, 0x00, 0x00, 0x00, 0x00, 0x00, 0x00, 0x00, 0x00, 0x00, 0x00, 0x00, 0x00, 0xb2, 0x7d, 0x1e, 0x3e, 0x6a, 0x22, 0x57, 0x3d, 0xb4, 0xf9, 0x14, 0xbc, 0x8c, 0x4a, 0x0e, 0xbe,
  0xf4, 0x12, 0x8a, 0xbc, 0x69, 0x01, 0x7b, 0xbe, 0xe5, 0xab, 0xc9, 0xbd, 0x51, 0xb6, 0x87, 0x3e, 0x4f, 0x3c, 0x41, 0x3d, 0x00, 0x00, 0x00, 0x00, 0x00, 0x00, 0x00, 0x00, 0x00, 0x00, 0x00, 0x00,
  0xf1, 0xd8, 0x28, 0x3e, 0xd7, 0xf7, 0x99, 0xbd, 0xf3, 0xa9, 0xf3, 0x3d, 0xe7, 0x68, 0x22, 0xbd, 0x7f, 0x09, 0xbd, 0xbe, 0xa0, 0x78, 0xd4, 0xbe, 0x3c, 0xc1, 0xc9, 0x3c, 0x57, 0x01, 0xc1, 0x3e,
  0xaa, 0xac, 0xfc, 0x3c, 0x00, 0x00, 0x00, 0x00, 0x00, 0x00, 0x00, 0x00, 0x00, 0x00, 0x00, 0x00, 0x19, 0xa0, 0x96, 0xbe, 0x87, 0xd3, 0xef, 0xbe, 0xf2, 0xd2, 0x28, 0xbf, 0x39, 0xa1, 0x9c, 0xbe,
  0xd4, 0xf3, 0x2f, 0x3d, 0x89, 0x6e, 0xcf, 0x3e, 0x2f, 0xae, 0x9b, 0x3e, 0x2c, 0x56, 0xe6, 0x3d, 0xfe, 0x1d, 0x97, 0x3d, 0x00, 0x00, 0x00, 0x00, 0x00, 0x00, 0x00, 0x00, 0x00, 0x00, 0x00, 0x00,
  0xc0, 0xf7, 0x14, 0x3d, 0xde, 0x66, 0x83, 0xbd, 0x76, 0x7c, 0x5c, 0xbe, 0xda, 0xba, 0x6a, 0xbe, 0xdc, 0x06, 0x51, 0xbe, 0x92, 0x65, 0x0b, 0xbd, 0x33, 0x0c, 0xe1, 0x3d, 0x75, 0x10, 0x75, 0x3e,
  0x50, 0x7d, 0x65, 0x3d, 0x00, 0x00, 0x00, 0x00, 0x00, 0x00, 0x00, 0x00, 0x00, 0x00, 0x00, 0x00, 0x50, 0xc3, 0x68, 0xbe, 0xf8, 0x97, 0x69, 0xbe, 0x22, 0x62, 0x83, 0xbd, 0x29, 0x9e, 0xe2, 0xbd,
  0x85, 0x7a, 0xba, 0xbd, 0x90, 0x88, 0x15, 0xbe, 0xb6, 0xd1, 0xff, 0xbd, 0x6c, 0xe9, 0x8e, 0xbd, 0x9f, 0x10, 0x88, 0xbe, 0x00, 0x00, 0x00, 0x00, 0x00, 0x00, 0x00, 0x00, 0x00, 0x00, 0x00, 0x00,
  0x35, 0x8f, 0xf5, 0x3c, 0xd0, 0x63, 0x7e, 0x3d, 0x4a, 0xef, 0x22, 0x3d, 0x92, 0xa4, 0x10, 0x3d, 0x89, 0x53, 0x9a, 0xbe, 0xa5, 0xce, 0x38, 0xbe, 0xe8, 0x93, 0x40, 0xbd, 0x46, 0xa4, 0x77, 0xbd,
  0x86, 0x08, 0xcc, 0xbd, 0x00, 0x00, 0x00, 0x00, 0x00, 0x00, 0x00, 0x00, 0x00, 0x00, 0x00, 0x00, 0x86, 0x18, 0xbb, 0xbd, 0x2f, 0x99, 0x2e, 0xbd, 0xd3, 0xb3, 0xaf, 0x3d, 0x94, 0xbe, 0x82, 0x3d,
  0x31, 0x5f, 0xcb, 0x3c, 0x0a, 0x71, 0x34, 0x3d, 0x8e, 0xcb, 0x6c, 0x3d, 0xde, 0x9b, 0x0d, 0x3e, 0x9f, 0x5e, 0x6f, 0x3e, 0x00, 0x00, 0x00, 0x00, 0x00, 0x00, 0x00, 0x00, 0x00, 0x00, 0x00, 0x00,
  0xa0, 0x81, 0xfe, 0x3c, 0x74, 0xcc, 0x88, 0x3d, 0x78, 0x55, 0x7a, 0xbd, 0x0a, 0xdd, 0x0f, 0x3d, 0xdc, 0x02, 0xe7, 0x3d, 0x3a, 0xea, 0xda, 0xbc, 0xeb, 0x0b, 0xdc, 0xbd, 0xf4, 0xea, 0xbf, 0xbd,
  0x62, 0xb5, 0x43, 0xbe, 0x00, 0x00, 0x00, 0x00, 0x00, 0x00, 0x00, 0x00, 0x00, 0x00, 0x00, 0x00, 0x3a, 0xbf, 0xcd, 0xbd, 0x63, 0x7e, 0xb9, 0xbd, 0x78, 0x07, 0x4c, 0x3b, 0x13, 0xd8, 0x9d, 0x3d,
  0x91, 0x5d, 0xc1, 0x3a, 0x32, 0x26, 0xc4, 0x3d, 0x32, 0x38, 0x8a, 0x3d, 0xc8, 0x36, 0xe6, 0x3d, 0xe0, 0x0e, 0x4a, 0x3d, 0x00, 0x00, 0x00, 0x00, 0x00, 0x00, 0x00, 0x00, 0x00, 0x00, 0x00, 0x00,
  0xaf, 0x9c, 0x00, 0x3e, 0x0c, 0x57, 0xd0, 0x3d, 0xf4, 0xc2, 0xa1, 0x3e, 0xfe, 0x59, 0x26, 0x3e, 0xfd, 0xa2, 0x23, 0x3e, 0xfe, 0x8b, 0x43, 0xbd, 0x86, 0x66, 0x0a, 0xbd, 0x67, 0xc2, 0x44, 0xbd,
  0x8a, 0x86, 0x4a, 0x3e, 0x00, 0x00, 0x00, 0x00, 0x00, 0x00, 0x00, 0x00, 0x00, 0x00, 0x00, 0x00, 0xcd, 0x4c, 0x17, 0x3c, 0xae, 0xc9, 0x92, 0x3d, 0x2b, 0x24, 0xe7, 0x3c, 0x80, 0xa0, 0xf2, 0x3d,
  0x46, 0x7d, 0xc5, 0x3d, 0xfc, 0x3b, 0xa1, 0xbd, 0xee, 0x5b, 0x93, 0xbd, 0x6f, 0x73, 0x6e, 0xbd, 0x75, 0x2a, 0x21, 0x3c, 0x00, 0x00, 0x00, 0x00, 0x00, 0x00, 0x00, 0x00, 0x00, 0x00, 0x00, 0x00
};

static unsigned char unet_encoder1_conv1d_block_1_conv1d_bias[32] __attribute__((aligned(4))) = {
  0x76, 0x15, 0xc4, 0xbe, 0x6c, 0x8e, 0x37, 0x3e, 0x4b, 0x07, 0xbc, 0x3f, 0xde, 0x16, 0x4a, 0xbf, 0xd9, 0x5b, 0x13, 0x3f, 0x2a, 0x49, 0xcc, 0x3e, 0xe4, 0x3a, 0x60, 0x3e, 0x57, 0x43, 0x99, 0x3d
};

#endif
